#version: 0.2 - Trained by `huggingface/tokenizers`
Ġ a
h e
i n
r e
o n
Ġt he
e r
Ġ s
a t
Ġ w
Ġ o
e n
Ġ c
i t
i s
ti on
a n
o r
e s
Ġ b
e d
Ġ f
in g
Ġ p
o u
Ġa n
Ġnucle i
a l
a r
Ġt o
Ġ m
a tion
Ġo f
Ġ in
Ġ d
Ġ h
Ġan d
i c
a s
l e
Ġt h
i on
o m
l l
en t
Ġserot onin
Ġ n
Ġ l
s t
Ġ re
v e
Ġ e
r o
l y
Ġb e
Ġ g
Ġ T
a ti
c t
Ġ S
i d
o t
Ġ I
u t
e t
Ġ A
Ġ is
Ġ on
Ġw ere
i m
a m
o w
a y
a d
s e
Ġth at
Ġp ati
Ġ C
i g
Ġf or
a c
Ġ y
v er
u r
Ġ u
l d
a use
Ġs t
Ġinform ation
Ġ M
' s
Ġ he
Ġ it
at ion
it h
i r
c e
Ġy ou
i l
Ġleaf let
Ġ B
Ġde uter
Ġw h
uod enal
o l
Ġciv il
Ġ P
Ð¸Ð º
Ġw ith
Ġtopo isomerase
Ġ 1
03 3
t er
ac ental
c h
acet amol
Ġa s
Ġw e
Ġ (
n d
i ll
Ġ D
i f
Ġ 2
a g
er s
el l
k e
Ġ "
Ġ H
lym ph
e m
an ti
Ġc on
Ġ W
Ġ R
he r
Ġw as
ti ve
Ġ r
o d
ro m
Ġ F
u l
at e
Ġa t
r i
Ġpati ents
p p
p ec
o re
un d
ĠT he
Ġs e
u s
Ġp ro
Ġh a
u m
Ġa re
Ġd e
a in
an d
Ġ us
Ġo r
Ġeff ec
ig h
es t
is t
a b
tion s
r om
Ġ N
t h
Ġc om
Ġ G
u n
o p
0 0
Ġ L
Ġn ot
es s
Ġe x
Ġ v
re s
Ġ E
e w
it y
an t
Ġb y
e l
o s
or t
o c
Ġstr uct
q u
Ġf rom
Ġha ve
Ġs u
i ve
ou ld
Ġs h
Ġth is
ti v
n t
r a
p e
igh t
Ġcalc ulation
ar t
m ent
Ġanti b
Ġa l
u st
en d
- -
al l
Ġhep at
Ġ O
ac k
Ġc h
Ġ le
i es
o us
re d
ar d
â Ģ
ou t
Ġ J
Ġa b
e ar
i v
al ly
ou r
o st
g h
p t
Ġp l
Ġexperim ental
as t
Ġc an
Ġres ul
a k
om e
u d
T he
Ġh is
oc or
Ġd o
Ġg o
Ġs tim
Ġh as
Ġis chem
g e
' t
Ġ U
r ou
Ġs a
Ġ j
Ġb ut
Ġw or
Ġa ll
Ġpot enti
e ct
s or
Ġ k
am e
Ġw ill
o k
Ġw he
Ġthe y
es tig
id e
Ġdifferen t
0 1
Ġen d
f f
ic h
p l
t her
d uc
Ġt r
. .
Ġin t
Ġc esarean
i e
Ġcoch lear
u re
ys ter
ag e
Ġsoy bean
Ġn e
i al
a p
in e
ic e
Ġm e
Ġo ut
an s
on e
ere d
on g
o und
ion s
Ġwh o
en si
Ġ K
ec ted
o uld
Ġu p
re ase
Ġoc c
Ġthe ir
Ġfactor s
Ġa d
Ġcont rol
Ġ 3
ac ter
Ġu s
Ġresul ts
at ed
ou s
Ġm ore
u e
o g
ĠS t
in d
op erative
i ke
Ġs o
Ġli e
im e
ospit al
Ġre ticular
p er
Ġlog arith
. "
Ġdisrup ting
b er
Ġb p
Ġun altered
i z
Ġprost ate
a ct
Ġneu rolog
Ġon e
Ġsa id
Ġ -
Ġuns aturated
a re
Ġc urrent
Ġyou r
Ġgro w
c c
ĠT h
Ġex ception
Ġc l
e p
a ke
ab le
i p
Ġcon t
ati ve
Ġwh ich
i a
Ġ im
Ġab out
Ġwe re
Ġeffec tive
ver y
Ġr ati
u b
e tic
ĠE ch
Ġh ad
Ġ en
Ġcom p
, "
ĠI n
Ġu n
Ġa g
i re
ac e
a u
Ġs ug
ar y
Ġus e
Ġw ould
as s
Ġdiagnos tic
r y
Ġ âĢ
c l
Ġad sorb
o ok
yc ardia
e re
s o
Ġ V
unc tion
ig n
i b
Ġof f
Ġt e
v en
eren ce
Ġ Y
i le
o se
it e
or m
Ġ2 01
Ġre s
Ġm an
Ġp er
Ġfac tor
Ġo ther
or d
Ġincreas ed
ul t
Ġbe en
Ġs uc
Ġl ike
ug h
as e
an ce
k s
ay s
ow n
an ts
en ce
i tion
Ġd is
Ġin hibit
ct ion
Ġgroup s
Ġan y
Ġa pp
Ġs p
in t
res s
Ġt es
ation s
a il
Ġ 4
ic al
Ġthe m
Ġhe r
ou nt
ĠC h
Ġa r
Ġ if
Ġthe re
Ġp e
Ġy ear
a v
Ġad ults
Ġm y
Ġs ome
Ġwhe n
Ġf lu
ou gh
ac h
Ġth an
r u
on d
ic k
Ġo ver
ve l
Ġ qu
Ċ Ċ
Ġs c
re at
re e
re as
ĠI t
ou nd
p ort
Ġal so
Ġp art
f ter
Ġk n
Ġbe c
Ġt ime
en s
Ġ 5
op le
Ġs pec
Ġwh at
Ġac tiv
a di
Ġn o
Ġprolif eration
Ġmorph ological
d u
Ġmicro M
m er
ĠC max
an g
amin ase
Ġsp rint
Ġn ew
Ġcathe ters
-- --
Ġg et
or y
tor ies
it ion
ing s
Ġj ust
Ġint o
an tic
Ġ 0
Ġim pro
ent s
o ve
t e
pos ed
Ġpe ople
Ġcir c
Ġp re
anc y
Ġit s
tom y
Ġre c
Ġt w
os e
i an
ir st
Ġw ork
ar k
or s
Ġchar acter
Ġwor k
ad e
o b
Ġs he
ul d
Ġo ur
w n
in k
l ic
Ġ1 9
Ġeffec t
ĠH e
is h
Ġu til
nd er
im in
au se
Ġh im
on s
Ġ [
Ġ ro
f orm
o ut
i ld
ent r
at es
ce p
ver s
ec h
Ġon ly
o ll
Ġs pe
c k
e ll
hy thm
am p
Ġa cc
Ġb l
i ous
ur n
f t
Ġs kin
o od
Ġh ow
he d
Ġ '
enti al
Ġa fter
duc tion
Ġapopt osis
a w
Ġpar tic
Ġat t
Ġim mun
o v
n e
Ġpl ay
og ra
er v
ic t
Ġc ould
it t
Ġa m
Ġf irst
Ġ 6
Ġa ct
Ġ $
e c
h ing
u al
u ll
Ġcom m
o y
Ġparti al
o ld
Ġcomp rehen
c es
at er
an is
Ġf e
Ġbe t
p tion
w e
if f
Ġtw o
oc k
Ġb ack
Ġrepor ted
) .
vi ous
id ent
Ġu nder
rou gh
se l
x t
Ġm ay
Ġr he
rou nd
Ġp o
p h
is s
Ġd es
Ġmic ro
Ġm ost
Ġd id
Ġad d
j ect
Ġin c
f ore
Ġp ol
Ġe lec
on t
Ġag ain
Ġautophag y
cl ud
Ġprecur sor
ter n
Ġkn ow
Ġne ed
Ġcon s
Ġw omen
Ġc o
o ur
Ġ .
l ud
Ġw ant
Ġund er
over y
Ġse e
ph s
Ġ 7
Ġch or
n ing
i ew
ĠTh is
c ed
il l
Ġe ven
Ġin d
t y
ĠW e
am et
at h
Ġthe se
Ġp r
Ġu se
Ġt wo
Ġbec ause
Ġal l
Ġf l
n g
Ġmechanis ms
Ġn ow
av ail
ĠâĢ ĵ
Ġp olic
c om
emb er
is e
Ġas ym
Ġm ake
Ġthe n
ĠA TP
ow er
Ġe very
urren ces
ĠU n
ĠAD P
Ġse c
tion al
t ol
os s
ozo a
u ch
Ġe m
Ġ =
Ġgen e
ĠR e
i ed
r it
Ġtran s
Ġin v
Ġunc lear
le ct
Ġsu pp
at ing
Ġl ook
m an
pe ct
Ġpredic ted
Ġ 8
dition al
ro w
Ġinv estig
Ġb u
Ġwhe re
if ic
Ġyear s
i ly
Ġd iff
Ġsh ould
Ġre m
T h
enc y
I n
ĠDop pler
Ġe v
d ay
Ġin di
' re
ven tion
ri b
Ġre l
Ġinc reas
s s
ti m
duc ed
Ġde f
och rome
Ġr ight
Ġs y
Ġcarcin oma
) ,
l es
00 0
he n
Ġth rough
ĠT r
_ _
Ġim mediate
Ġw ay
ag ulation
Ġd on
Ġ ,
Ġpolym er
Ġ1 0
Ġref lec
Ġprol actin
as ed
Ġinj ection
so ver
Ġas s
Ġcapac ity
ph ag
ub lic
Ġst reng
Ġre g
igh ts
ĠOn c
ĠA nd
tain ing
i x
Ġ very
Ġin clud
ot her
Ġim p
Ġv ery
ot h
Ġsu b
Ġ un
ĠâĢ Ķ
Ġbe ing
ar g
Ġvol um
ĠW h
u tion
= =
ib le
Ġdo es
an ge
Ġim plant
r am
Ġ 9
er t
p s
it ed
ation al
Ġb r
Ġd own
Ġman y
ak ing
Ġchan ge
Ġc all
Ġtechni ques
ur ing
it ies
ac t
Ġp h
ic s
Ġt ran
al s
Ġdiff eren
Ġde c
di tion
at ive
Ġex pression
en er
Ġbe fore
chlor ide
il ity
Ġwe ll
Ġm uch
ers on
Ġth ose
Ġpa ving
Ġsu ch
Ġ ke
Ġ end
ĠB ut
as on
Ġfores t
t ing
Ġl ong
Ġinc lud
e f
Ġne u
Ġth ink
y s
ĠIn trac
Ġbe l
Ġs m
it s
a x
Ġinc rease
Ġo wn
Ġmeasure d
Ġpro v
Ġs et
Ġpla que
if e
Ġprovid e
ment s
b le
w ard
Ġsh ow
Ġp res
m s
om et
Ġo b
Ġs ay
Ġgro up
ĠS h
t s
Ġtrig g
f ul
ti c
Ġe ff
ec t
Ġg u
ra m
Ġin st
u nd
re n
c ess
Ġ ent
ĠY ou
Ġgo od
Ġst art
in ce
Ġm ade
t t
Ġtes ts
st em
Ġex tr
ol og
Ġd ec
u p
Ġ |
um p
Ġhe l
ver n
Ġb enef
ul ar
u ally
le c
Ġa c
Ġviv o
Ġm on
Ġat ten
Ġl ast
ac tive
Ġ2 00
1 0
Ġst ud
u res
ĠA r
sel f
Ġtransi tion
ar s
mer ic
Ġele ments
u es
E GF
c y
Ġm in
in ts
oll ow
i tive
Ġc ol
i o
Ġm od
Ġc ount
ĠC om
he s
Ġf in
a ir
i er
Ġconcentr ations
âĢ Ķ
re ad
an k
at ch
Ġmic roscopy
e ver
aph yl
Ġst r
Ġpo int
or k
ĠN ew
Ġap pro
Ġs ur
o ol
al k
Ġm otor
em ent
Ġlear ning
Ġrol es
Ġus ed
Ġhyper tension
Ġsmok ing
ra ct
we en
Ġs ame
ou n
ĠA l
c i
vi ew
Ġdiff ere
ti l
ĠS te
Ġwh ile
Ġm ech
ĠÐ º
---- ----
Ġhygi ene
Ġg ame
ce pt
Ġs im
.. .
Ġin ter
angi ect
e k
ĠP GC
Ġre port
aps ules
Ġpro du
Ġunder st
Ġtunn eling
Ġst ill
Ġsug ges
l ed
Ġpl asm
a h
pective ly
Ġhe re
Ġpati ent
Ġwor ld
Ġsuc h
Ġth ough
Ġn um
ar ch
im es
al e
Ġdistinc tive
ĠS e
Ġo c
ag inal
ĠI f
Ġrem o
Ġisot ope
/ /
ĠL e
Ġpolyp eptide
Ġre t
e lec
Ġre f
Ġtr ans
Ġre duced
n er
ut ion
Ġconsid ered
ter s
Ġind ependent
Ġt ake
erg y
ĠC l
Ġsal t
Ġcon f
m eth
w ay
a ve
Ġgo ing
Ġs l
Ġsk ew
u g
Ġbenz yl
ĠA meric
Ġspe c
Ġh and
Ġbet ween
Ġsm ok
ist s
Ġrel i
ĠD e
o ot
I t
Ġe ar
ĠR CM
Ġagain st
ĠC omp
Ġh igh
g an
a z
at her
Ġconduc ted
Ġex p
Ġo p
Ġin s
Ġg r
Ġhel p
Ġre qu
Ġpro posed
et s
in s
ron ch
ĠP ro
is m
Ġf ound
c ri
l and
at a
us s
am es
Ġret urning
Ġp erson
ram idal
ĠG astric
Ġg reat
lud ed
Ð°Ð» ÑĮ
p r
Ġpro m
Ġmicron ucle
Ġs ign
Ġobser ving
ĠA n
ĠE RP
' ve
Ġs omet
Ġs er
h ip
Ġr un
Ġ :
Ġt er
ire ct
Ġf ollow
Ġd et
ic es
Ġf ind
1 2
Ġm em
Ġc r
Ġinteg r
e red
e x
Ġex t
Ġdem onstr
ut h
en se
eff ectiveness
c o
Ġte am
Ġex pos
v ing
ou se
as h
at t
v ed
Ġsy stem
ĠA s
Ġs up
d er
âĢ ī
age ment
iv es
m in
Ġindic es
Ġle ad
ĠB l
c ent
Ġspec ifically
Ġa round
ros cop
Ġgo vern
ĠT NF
Ġc ur
p tom
vel op
ap p
Ġsam pl
an y
Ġc our
al th
ag es
Ġv ari
iz e
Ġc ar
od e
Ġl aw
ic acy
Ġre ad
Ġtes ted
Ġhypertroph y
' m
c on
Ġre al
Ġb ec
Ġsupp ort
Ġaddition al
Ġ1 2
.. ..
Ġre ally
n ess
Ġappreci ably
Ġf act
Ġcom bin
ab alin
Ġd ay
ĠSR EBP
Ġb oth
y ing
enti f
Ġs erv
Ġsup press
ĠF or
ag land
Ġth ree
Ġw om
Ġm ed
od y
ĠThe y
5 0
Ġex per
t on
Ġe ach
ak es
Ġc he
os omal
Ġc re
in es
Ġre p
1 9
g g
ill ion
Ġprec ur
Ġg rou
Ġu ter
Ġradi ant
ut e
i k
W e
g et
et axel
E R
Ġm et
Ġs ays
o x
Ġd uring
er n
iz ed
Ġdis proportion
a red
Ġf am
ic ally
Ġha pp
ĠI s
Ġex osomes
Ġch ar
m ed
v ent
Ġgen er
Ġg ener
i ent
p le
i et
re nt
y ra
1 1
Ġmicro bleeds
v es
Ġket osis
pt ion
ĠEd mon
Ġ2 0
Ġdissip ated
form ation
Ġc or
Ġcardi ovascular
Ġoff ic
ie ld
Ġto o
is ion
Ġin f
Ġ Z
t he
Ġco un
o ad
Ġvolum e
Ġp ublic
Ġcon dition
Ġpro g
r ic
* *
Ġw ar
A ED
Ġp ower
line ar
éĻ ¤
v iew
oud en
Ġf ew
Fox p
Ġl oc
Ġco unt
ĠC n
Ġdiffere nt
Ġang us
Ġst ate
SR M
Ġhe ad
Ġradio immuno
' ll
Ġemp agliflozin
Ġp oss
Ġgraph ically
Ġst at
bond s
re t
Ġalumin ium
A NC
ant s
Ġout group
Ġv al
ind olyl
Ġis s
Ġfol low
MP TP
Ġc le
omed iast
i vers
an c
Ġex pl
Ġan other
rec t
Ġ Q
Ġa v
th ing
n ce
Ġsup ras
W h
Ġnormal ity
Ġch ild
r ically
Ġpreclud es
Ġs ince
ti t
i red
l ess
Ġl ife
Ġt ren
Ġde velop
Ġcol lec
itt le
Ġde p
Ġp ass
ã ĥ
Ġt urn
ĠSt em
or n
ap t
Th is
istr y
od ily
b ers
r up
Ġneu roph
ro ss
i ving
Ġap oprotein
ĠA d
Ġstrateg y
Ġsynthet ases
Ġf r
Ġweek s
por ted
Ġund isturbed
Ġres p
Ġst atis
Ġmild ew
Ġsec ond
o h
Ġ /
Ġcalc ulated
Ġdis c
Ġ &
Ġsomet hing
Ġdisc ontin
Ġcomp le
Ġ ed
Ġf il
Ġmon th
a j
u c
Ġdirec tor
Ġgovern ment
Ġfl ax
Ġwith out
ell um
ĠM RT
Ġle g
Ġre qui
Ġd ensities
Ġect odomain
Ġd ist
Ġcar di
Ġprot ective
Ġ ries
Ġp ut
j or
ĠCh arcot
Ġqu est
Ð» Ð¸
an n
Ġheterozyg ote
Ġpro t
Ġmy oblast
2 0
Ġnutr aceu
Ġne ver
ĠL IL
i ence
Ġle vel
Ġvaccin ation
Ġar t
Ġth ings
respon ders
Ġm ight
Ġeff ect
ec ts
Ġcont ro
Ġdistrib ution
Ġc ent
Ġprog n
Ġ1 8
Ġall ow
is ts
Ġbel ie
ch ool
ok ine
ot t
Ġmemb ran
Ġinc re
Ġfe el
Ġam el
Ġres ult
Ġl ot
Ġf un
ot e
occ urrence
Ġt y
Ġenzym atic
oph ytic
ere st
Ġre activity
Ġcont in
Ġin trac
Ġus ing
en sion
Ġtim es
Ġb ig
Ġstrain s
2 01
Ġas k
Ġb est
Ġpar ts
Ġ )
act in
I N
Ġexamin ations
d rome
Ġo pp
Ġpers on
3 0
Ġnum ber
Ġenzym e
in ess
S t
Ġsurvi v
le ase
Ġbarri ers
ĠAustr alian
Ġc a
Ġvalu able
Ġdef ective
Ġm ust
i ti
o lysis
Ġthrom bin
Ġd irect
Ġmicro gra
Ġg l
Ġstr atif
Ġ <
ubi quit
Ġop en
x im
Ġp ost
Ġlow er
Ġcom e
Ġse em
ord ing
Ġalcoh ol
Ġwe ek
ate ly
it al
Ġin iti
Ġe l
Ġob jec
ri end
Ġfinding s
Ġf ar
Ġvec tors
Ġt ra
in al
Ġp ri
ĠU S
Ġpl ace
Ġmacroph ages
Ġfor m
Ġto ld
" :
CT LA
ain s
ĠCy an
Ġf g
at ure
Ġelectrocatal ytic
ĠH enan
ĠTr ump
pl ic
Ġmultich annel
Ġst and
ly m
ide a
Ġ #
Ġregion ally
id er
Ġbov is
car rying
ĠF r
A bl
Ġne xt
E PR
Ġs oc
o hyd
os uccin
Ġp ur
Ġne arly
Ġmel it
Ġle t
Ġpro duc
Ġl ittle
Ġin duced
co ated
Ġh um
pec ific
Ġ i
r on
1 5
Ġw ell
Ġ1 5
Ġneu ro
Ġcomm un
vir on
lis hed
Ġm ark
ĠThe re
Ġw r
i ved
ĠTh at
Ġcoeff icients
Ġin formation
Ġup regulated
w ays
Ġb us
a pp
Ġcont emporary
Ġinv est
m e
Ġfol ate
Ġh ard
ul ts
Ġbat tery
ain ed
Ġexamin ed
Ġtrans lation
e ad
Ġscaff olds
Ġim port
Ġb or
Ġapp ro
Ġt est
Ġt ri
Ġre st
vid ual
os ed
Ġy oung
Ġf ull
a virus
Ġc are
luores cence
ĠS p
Ġcombin ations
Ġc ase
O N
Ġs k
Ġpotenti als
Ġl ess
Ġvess el
Ġ +
Ġm ening
Ġpart ic
ĠP l
ab ly
u ck
is hed
ch n
cl usion
b e
if ically
Ġl ist
at or
Ġto p
Ġad v
Ġal g
ĠB e
ru ct
oc arcin
Ġd em
oz yg
r ation
l ing
g y
re en
Ġv alsartan
g er
Ġefficac ious
CH L
Ġh ome
Ð° Ð»
Ġpyr role
Ġle ft
ut aneous
Ġsuic idal
ulf ate
Ġbet ter
Ġre tain
Ġd ata
Ġ1 1
Ġatt ack
Ġpro ble
l ine
ard s
Ġbe h
r al
ĠH ow
Ġe arly
ĠS he
Ġintra uterine
ar ge
id in
Ġsurvi ve
Ġ --
: //
Ġb ro
ĠP h
at s
Ġbu ild
Ġrequi res
w w
id ed
duc ts
a im
Ġswit ch
as es
Ġtet ra
en cy
Ġconstit ute
Ġm ain
in ed
Ġinclud ing
Ġac h
Ġ {
Ġpos sible
Ġg ot
Ġre duction
Ġint erest
Ġsyn d
Ġke ep
Ġ X
Ġconn ection
Ġe as
Ġtransplant ed
ain ing
Ġhem at
Ġcl ass
Me ier
âĢ ¦
Ġcaus ative
ĠN o
ĠNor thern
Ġv ar
Ġsm all
amp le
A T
Ġ ide
ĠS o
Ġbur den
Ġre ce
Ġpol it
Ġm ov
Ġpl an
Ġper cent
iv ing
Ġem erg
Ġc amp
Ġp ay
respon sive
1 4
s c
is ed
Ġu nt
one y
pl oy
rog ate
== ==
Ġscre ening
od emographic
Ġdid n
ĠS urgery
ĠI nd
el s
ert ain
Ġp os
__ __
i ver
Ġpro cess
Ġprog ram
if ied
ĠR ep
1 6
u ro
Ġmemb rane
olog y
Ġtransi tions
at ter
ĠNa Cl
in a
Ġentit y
Ġn ame
Ġread mission
ĠA ll
Ġeff lux
Ġf our
Ġpseud o
Ġret urn
v ious
b s
Ġcall ed
Ġm ove
ace u
ĠS c
ir d
Ġgrou p
Ġb re
Ġm en
Ġc ap
t en
l amm
e e
Ġc hem
Ġd ri
Ġwavel ength
le g
Ġcaus es
Ġrec essive
he re
ran dom
Ġile um
uth or
ari um
ĠH eter
Ġp at
Ġcur rent
id es
Ġp op
t o
Ġt ech
ent ion
Ġal ways
Ġm il
Ġdiscus sion
Ġwom en
dom inal
Ġun treated
Ġ1 6
Ġmy el
Ġhybrid ization
Ġo ld
iv en
ra ph
ĠO r
ĠU bi
r or
ent ly
Ġn ear
ep endent
ĠE x
re am
s h
e ti
Ġ1 4
Ġf ree
iss ion
st and
ĠC on
al ity
us ed
Ġf inding
1 3
Ġdes ign
Ġch ange
Ġch ang
Ġb o
Ġv is
em ber
Ġb ook
read y
Ġk ill
2 5
Ġvas odil
pp ed
Ġinjur y
Ġa way
Ġab le
Ġcount ry
Ġcon st
ar n
Ġc atal
Ġor der
Ġbi op
od ym
A R
vi et
i or
i um
or th
ur ren
1 8
ardi al
ail able
ĠH SV
Ġs w
Ġm illion
Ġ1 3
at ic
t ed
ĠG o
Ġo per
Ġmyel oma
en g
ru vate
Ġth ing
in hibit
aj or
Ġbl astic
con om
Ġfl ue
ĠCom m
Ġpros odic
Ġwh y
Ġsubtel omeric
u red
Ġgain ed
anti ago
ur al
esare an
MB T
Ġs chool
us e
Ġdimeth acrylate
b y
t ant
ĠM ar
hydro x
Ġser osa
Ġa ff
Ġgas tric
ot rexate
Ġd ays
Ġcon struc
ir ds
Ġan n
us h
an e
Ġvi able
I f
ĠSoci ety
e g
Ġcontrac ep
Ġpro f
Ġsus tain
Ġdesc ri
Ġhe alth
Ġen zym
Ġselective ly
ou th
val u
pati ents
B ut
j ec
ion al
Ġid entif
Ġdi hydropy
. ,
il d
Ġunc ultured
Ġs ol
Ġf unction
Ġsensi tivity
Ġal ready
ow led
Ġ3 0
g rad
Ġchar act
en al
H e
Ġs ti
Ġf riend
Ġimmunos up
E S
i ans
ic le
' d
Ġhep atitis
ĠO n
Ġ eryth
Ġle ast
Ġinc lusion
Ġp rom
Ġnec rosis
Ġd r
Ġh ist
ro ugh
it her
Ġ est
Ġevalu ated
i qu
Ġreveal ed
1 7
g ative
s on
Ġst atus
Ġte ll
yptoph an
Ġt alk
itud es
oh n
ĠSc i
ĠRes id
o int
od g
le ction
A N
Ġunt il
ax el
au gh
Ġdes truc
Ġl ater
Ġ ve
an cer
Ġv iew
Ġwhe reas
end ing
te g
iv ed
Ġgene tic
Ġwor d
w are
Ġc ost
y c
Ġen ough
Ġg ive
amin ergic
ĠUn ited
Ġad sorption
Ġte chn
Ġrisk s
imin ary
are nt
Ġdis tal
O R
ĠAd ditionally
Ġp ar
ĠD r
Ġ201 6
r ist
er ing
ĠCM V
Ġ Â
Ġl arge
t hel
s ide
ac y
Ġspectrom etry
cc ess
Ġindi vidual
Ġw in
si ble
Ġimport ant
Ġovari ectomy
Ġ19 9
Ġdoes n
Ġ1 7
Ġves ical
Ġbus iness
Ġcomplic ations
Ġparti r
Ġcle ar
Ġpr inting
8 28
Ġre se
t roph
t raining
" ,
Ġparamet ric
ur y
opl atin
Ġe qu
Ġgast ritis
as ter
or der
ç» Ħ
al f
Ġagree ment
Ġp ector
ĠAmeric an
Ġheter o
n ect
upro fen
Ġex pect
ĠP LC
p enes
ivers ity
Ġo cc
Ġanest hetized
ĠF l
perg illus
Ġk ind
it oring
Ġme an
Ġp ast
Ġde v
pec ts
Ġb as
le t
ra ft
Ġor gan
Ġde l
Ġper form
Ġst ory
in ding
Ġse ason
yn ure
ĠC ol
Ġavi um
Ġcl aim
Ġcer tification
Ġc ame
Ġwith in
Ġl ine
Ġpro ject
ĠA t
Ġcontro l
end ed
ĠS y
Ġa ir
Ġlat tice
iz ation
Ġser otype
Ġ *
adrenal ine
le y
Ġnan or
Ġm oney
Ġexc it
id d
ul ties
Ġmulti p
Y ou
Ġinjec tions
ĠInf ectious
f or
ĠH CO
Ġfam ily
Ġm aking
Ġb it
Ġpol ice
id omide
Ġhapp en
Ġcompet ency
Ġ vers
( +/+)
on y
u ff
Ġpathophysi ological
ĠW hen
Ġs it
Ġul tras
ide o
ran ge
Ġrec anal
l f
is on
Ġsu re
Ġe pit
g in
Ġapp ear
Ġl ight
Ġ es
o f
Ġw ater
Ġt imes
Ġdifferen ce
n ot
Ġg row
Ġst ochastic
Ġcomp any
ĠT e
ow s
Ġe jection
Ġm ar
Ġcoeff icient
ĠS tr
our ce
an ges
i ol
g amma
ĠA NOVA
ar m
ra ine
Ġprost hetic
b r
Ġcardiomy ocytes
Ġex ample
Ġcon c
Ġf ore
ĠT o
p ro
E N
ri es
z heimer
Ġ2 5
Ġconcer ning
ĠC an
Ġend oscopic
ne y
Ġth i
Ġact ually
H CV
Ġe ver
Ġs agittal
ur ity
ak en
ap s
Ġt ax
Ġm ajor
sensi tive
am a
Ġof ten
er al
Ġhum an
min al
Ġj ob
is ter
Ġav ailable
oc r
en n
ĠMyo D
a id
ĠRem ark
Ġre entry
iv id
C NTs
Ġg ated
pal mitoyl
Ġrec ord
Ð¸Ñ ħ
ĠReli able
? "
oin ositi
ĠE MD
Ġs ing
æĦ ı
ĠA m
hol der
d ifluor
id ence
ĠH UV
T MD
Ġnew s
Ġprotein s
d imer
phosphor yl
st er
Ġsemicon duc
Ġe conom
ok al
Ġfollow ing
ĠB r
Ġmolec ular
is ing
Ġh our
m ost
um ent
Ġex tensive
Ġse x
Ġcatal y
Ġdes c
Ġpro duce
Ġbec ome
Ġmo lec
ĠE d
Ġto ok
rolog ic
Ġha ving
il ization
on ad
Ġprodu ct
Ġbiofil m
Ġmorph ogenesis
a ult
Ġhydro carbons
A s
Ġexplain s
ar ing
Ġmut ational
Ġme ans
Ġac cess
Ġaden ine
Ġh op
Ġpanc re
un e
Ġch o
Ġc ertain
Ġn on
Ġde al
2 4
le ment
t ype
oc i
ĠE IT
en e
ĠPBP K
Ġs ide
ĠP r
ĠM ay
Ġre ason
u ed
c hed
Ġac ademic
ul ation
Ġbiop sies
Ġe lect
pres sion
Ġoffic ial
Ġposs ible
Ġh old
and s
ot s
Ġc ity
or ies
Ġse ver
Ġchild ren
Ġon ce
Ġact iv
l er
Ġn ight
it ions
Ġst atic
ĠJ ohn
om eth
a pe
pl ay
Ġd one
Ġenco un
Ġl im
Ġwork ing
Ġexper im
ĠP res
Ġra di
or ld
e b
ĠC o
Ġb ody
ail s
Ġexper i
ut es
Ġshow n
ĠM r
Ġc ereb
Ġwhe ther
Ġa uthor
enc es
ro p
s pec
Ġpro per
Ġout c
Ġse en
Ġsug gest
Ġes tim
) ;
Ġrespon se
Ġepit hel
Ġf ac
Ġaut h
ĠS u
Ġcon d
Ġconn ecting
it ing
Ġ19 82
Ġcour se
Ġbis phosph
Ġ }
-------- --------
a ign
Ġev ent
Ġen g
Ġp ot
Ġin tern
i am
Ġsh ort
em pt
ã Ĥ
ĠG od
ty rosine
il ar
CO X
Ġav ons
8 0
diagn ostic
Ġax otomy
Ġor ig
le p
I S
til l
Ġunexpl ored
our n
Ġacc el
Ġextr usion
ab ility
Ġbiomark ers
ĠGen es
it ive
Ġplate let
d ifferentiated
Ġd am
Ġhyper insulin
Ġ1 00
Ġbenef ici
Ġp ress
Ġdo ing
Ġprot ect
Ġuro thel
r ing
Ġconsid eration
ĠCoh ort
Ġthough t
Ġcor tisol
Ġrib osome
Ġquest ion
Ġcyt omegalovirus
re w
ĠW ar
Ġfluores cein
Ġsever al
Ġval vular
ĠSt ate
Ġplasm a
Ġg iven
Ġpo lym
ec lamp
Ġf und
ac tiv
Ġre aching
ĠT w
Ġarter y
Ġf etal
Ġas cer
Ġw ent
tr as
Ð° Ð½
an ces
Ġc ognitive
Ġrating s
s urgery
w ork
ent an
pro ton
p or
Ġwaste water
m y
Ġsi RNA
4 0
Ġperin atal
Ġar g
enti sts
art ment
ust om
Ġpol ic
Ġme et
Ġc reat
ĠAcc ording
2 2
ĠSt ates
Ġg ames
Ġcontrib ution
ra w
Ġd imension
ut ure
Ġunder stand
ur s
ĠO b
l ish
s y
Ġm akes
Ġre por
Ġw on
Ġca re
â Ĥ
ag on
Ġuter ine
Ġleuc ovorin
Ġh tt
Ġeff iciently
ĠParadox ically
Ġl ove
S NAP
ent ial
Ð¸ÑĤ ÑĮ
Ġcomple te
Ġmicrobub ble
p ar
Ġb ax
ĠI m
Ġs ec
ĠL MS
A L
ĠH owever
Ġsugges ted
Ġgrass lands
Ġacc ount
ĠsF lt
Â ł
cell ation
ore d
ver t
Ġ ident
Ġciti zen
Ġ201 5
ĠSchiz osaccharomyces
Ġother s
con taining
ĠAtt achment
ĠM in
Ġhem ich
i ber
HT TLPR
ver age
ĠLig and
The re
Ġcharacteris tics
impl antitis
ition al
an oprost
d d
Ġpro b
53 3
Ġyou ng
IU GR
Ġal ong
ĠC m
Ġacc ording
Ġporph yria
Ġy et
ch olinergic
Ġmem bers
ĠPl uronic
ĠWh at
o id
Ġpost ural
ĠM an
ac tion
A nd
si ve
a vi
Ġam ong
Ġpro vid
it ting
a i
Ġem ploy
ĠR es
Ġrequi re
Ġ >
cep t
Ġinv ol
c ell
Ġl ow
o res
Ġra re
a f
urren t
ĠC ar
Ġdecreas ed
Ġh ig
ĠO ne
yp e
ĠS ec
in ation
Ġethyl ene
Ġlike ly
Ġr hy
Ġan t
ti ce
Ġmicrog ram
ag ed
Ġpharmac ologic
ĠR uss
Ġb en
Ġre le
Ġins tit
F or
b ack
Ġpar aparesis
ĠN ot
Ġk ne
Ġpres ident
Co V
b all
Ġacc ess
ivid ual
ĠD em
ĠE uro
Ġtub er
6 0
Ġar res
Ġstrept ococci
Ġkn own
ĠÃ© t
tic ism
ir l
ĠA PP
Ġhydroly zed
ĠG r
Ġan ions
ov ine
Ġear ly
Ġat tained
ĠPer ipheral
sup er
u se
Ġam orphous
Ġurg ently
iet y
cal c
Ġdeter gent
âĢ ĵ
Ġf ight
Ġmes ang
Ġs ent
op eptidase
Ġto day
Ġan astom
t uring
Ġmark et
ord ant
Ġcollec tively
" .
ĠExper im
Ġsusp icion
Ġleishman iasis
Ġb ased
ith iasis
Ġstr ong
o ves
ur ther
com part
Ġde b
Ġobser ved
m ber
Ġproble m
Ġfram e
Ġde ath
Ġsoc ial
Ġman agement
im ate
A S
Ġnon c
ort un
Ġcamp aign
er y
b rom
C h
Ġe y
i ally
Ġm us
w h
p os
Ġ er
Ġsa f
Ġmonth s
ir on
Ġv iol
ĠU VA
Ġf ive
ody strophy
Ġst re
Ġkn owledge
Ġplay ers
ĠPati ents
in c
ĠCand ida
al d
ros s
de oxy
y ear
Ġm emb
chol inesterase
a un
ha vi
Ġsu ccess
Ġpres ent
ere nce
Ġ201 4
Ġsu gg
Ġspect ra
Ġpartic ular
Ġtr y
Ġsugg est
ĠCh rist
on es
ĠPav lovian
Ġpri v
Ġma xim
2 3
ĠD ental
Ġc rit
Ġl and
Ġloc al
if y
2 9
Ġa ut
Ġmolec ules
E D
ĠG u
Ġst roke
Ġm ult
Ġin tr
Ġper cutaneous
Ġpolit ical
Ġed ema
entan yl
Ġask ed
Ġt ext
Ġfor mer
Ġpost natal
it ter
ri pt
Ġclinic opathological
Ġcl ose
ĠInv estig
Ð¾ ÑĢ
Ġp ract
ec ting
Ġfer ritin
ĠM orph
ĠY ork
Ġselec tive
Ġsuc cin
Ġpoli tical
Ġget ting
Ġadsorb ed
Ġac ross
Ġcom b
Ġbelie ve
Ġk Da
Ġ z
Ġadi p
Ġto get
Ġtoget her
ĠC ent
ir c
Ġind ividual
Ġdis per
ĠM c
2 7
is k
Ġpro por
ĠE ng
Ġox ygen
Ġf ace
Ġ2 4
Ġval ue
Ġrati o
Ġare a
Ġar tic
e v
Ġw rit
ĠPres ident
Ġ5 36
Ġv ot
Ġpharmac ogenomic
Ġke y
ci ences
Ġm om
çº ¿
p ut
ĠSurve y
ĠDMP C
Ġany thing
iti g
Ġsubcon tinent
Ġexper ience
Ġhist opathological
rid den
Ġsino atrial
att le
ĠD EF
re presentative
Ġm ind
HR CT
a ff
dimethyl benz
om m
ĠBE AS
Ġf uture
aden ocarcinoma
g ed
Ġpub lic
Ñĥ Ð¶
Ġc ut
sulf oxide
Ġto t
Ġelectr onic
Ġoct apeptide
it ch
Ġischem ic
ĠP d
ĠD ab
Ġv ideo
ĠN PI
Ġinvest ig
Ġ5 15
Ġn et
ĠM y
ous e
r ict
Ġcorrec tion
i en
opl asty
. )
Ġintr insic
Ġol ive
Ġimp ro
Ġretros pectively
Ġfat her
th ough
pl asia
Ġcalor imetry
ward s
er ation
fac tory
Ġcon nect
si a
Ġprim ing
ĠM ed
ĠDiagn ostic
sel ves
ens ive
m b
o ber
em itting
at ors
Ġund etermined
A n
ĠC LA
Ġ5 0
ĠB K
Ġregen erating
Ġre du
Â ¹
res ent
Ġexha us
Ġab ove
Ġf re
Ġheter ogene
ĠEuro pe
Ġchir ality
s w
ĠCO OH
Ġam ount
Ġexclud ed
ĠA pp
Ġe ither
Ġmil it
Ġan al
Ġf ail
ĠE n
tic ally
al es
ten sion
Ġspec ial
o ung
ov ascular
Ġbl ack
Ġcardi ac
Ġappro priate
I T
c her
Ġlook ing
Ġun met
Ġf ire
y n
Ġal most
Ġcons id
o on
ti s
Ġstud y
Ġd el
Ġm iss
Ġsur vi
c hes
Ġm ell
ro wn
Ġfe eding
ĠH PV
Ġt re
ĠC YP
Ġcommun ity
Ġmicrotub ules
Ġmed ia
Ġren ew
Ġf ood
op edic
Ġcom es
Ġcompound s
am mon
ĠUn iversity
Ġanis otropy
Ġsing le
Wh at
u ly
ĠÐ¸Ñģ Ð¿
Ġh alf
Ġpros pectively
os ia
ag ue
h od
Ġpolic e
ĠRep ublic
Ġstart ed
ĠD BS
Ġqu ick
ot o
Ġiso forms
b ook
ore active
Ġiss ue
it or
Ġcongen ital
Ġel se
Ġcons ider
r atory
2 6
ro du
Ġt aken
2 8
9 9
ĠW ith
Ġtr ue
Ġde pression
Ġw a
Ġtr ad
Ġag o
Ġm ess
ie f
Ġadd ed
az one
o ke
Ġdup lex
Ġb ad
Ġduplic ation
Ġbab y
Ġf av
ĠLeishman ia
ĠNO D
3 3
Ġprolong ation
Ġsim ilar
ffe e
as k
N MR
ĠD on
or h
Ġcharact er
Ġbic arbonate
auc oma
ort s
kit t
ĠH ouse
Ġfr u
Ġreport ed
cop hen
ĠS CL
Ġty pe
Ġdec ont
cy tidine
v al
ĠTh ym
i od
os t
åĨ ħ
ĠHow ever
Ġb et
Ġco uld
ĠL BW
Ġt arg
ĠP p
Ġent ire
Ġdown regulating
pp ing
ĠRadi x
Ġhist ory
Ġacc r
Ġl ive
Ġfunction ed
ff ic
agen esis
.... ....
ĠGH z
Ġstom ata
ed eral
Ġtr ying
Ġdisc uss
ĠH ar
ac es
Ġflow ering
l ished
Ġhom ozyg
Ġse lf
os p
re st
Ġro om
el t
Ġf all
Ġmit ral
ol ution
Ġsetting s
Ġe t
spec ific
ant h
Ġ x
Ġrespon ses
Ġ rol
Ġis n
Ġpar t
Ġide a
b o
Ġs ound
Ġpost operative
ĠD ep
Ġsome one
Ġpig s
ci ally
ull y
Ġf oc
Ġob ject
if t
ap er
lec ted
Ġplay er
Ġr ather
Ġhum eral
Ġserv ice
as hing
ĠD o
ĠP art
ĠAp p
ru g
m on
p ly
Ġm or
Ġnot hing
Ġprov ide
Ġhyper tensives
I C
Ġcholeste atoma
un g
Ġpart y
Ġex ist
Ġm ag
Ġinhibit ed
7 0
ĠP OC
Ġr ul
Ġcontrol led
ĠS LI
Ġh ouse
Ġbeh ind
Ġpredominant ly
Ġhow ever
ĠW orld
Ġs um
Ġapp lic
Ġ ;
Ġfun ction
g r
ĠP ol
ĠH elic
Ġfr ont
str ual
2 00
Ġser ies
Ġestim ate
Ġt em
Ġqu anti
Ġty p
Ġquantit ative
ill s
Ġo pt
Ġpoint s
Ġbel ow
itt ed
Ġspec ific
Ġ201 7
Ġad dition
um b
Ġr a
Ġpre vious
Ġpre t
re me
Ġc ustom
eu tics
Ġcour t
ĠMa ximal
ĠM e
ĠSch istos
Ġre pl
Ġhigh l
Ġmo lyb
Ġwho le
Ġre plic
Ġm oll
g o
Ġrespon d
c er
as tic
Ġelectr on
Ġt reat
Ġan ti
Ġprol if
ĠA ct
ec tion
Ġline ar
Ġprob ably
Ġpro tein
Ġle arn
li er
end er
ĠA ss
Ġelong ation
Ġvers ion
in ting
n ow
Ġche ck
on ally
ĠC al
ĠD l
R E
Ġsp anned
min ist
Ġrespon sive
ĠPA GE
O n
eclamp sia
our ces
form in
Ġben ef
ish man
Ġd oc
Ġdet er
Ġen c
Ġsu per
Ġadd ress
Ġv ict
Ġ201 3
Ġme as
Ġim mediately
t r
pec tive
Ġinstit ution
Ġf ield
Ġty rosine
W hen
Ġdistrib uted
Ġsign ific
Ġreduc es
u ge
Ġfe at
Ġcomm on
l oad
Ġbe gin
Ġbr ing
Ġex pressing
Ġa ction
er man
Ġdesc rib
Ġind ust
ical ly
Ġwant ed
ri ed
m ing
Ġatt empt
Ġcomorb id
4 5
ec onomic
f er
Ġd ue
ress ion
# #
Ġsh all
Ġs ix
hal ogen
o o
Ġsec re
ĠMedic ines
Ġst ep
ĠIm mediate
RA NKL
Ġp ub
ial lelic
Ġhim self
erc osis
Ġ2 3
ĠGI STs
Ġc op
Z IP
Ġd est
Ġproduc ts
A HI
Ġst op
ĠMultivari ate
ĠPer itoneal
A C
Ġtrigg er
Ġhapl ogroup
ib ility
ar ts
tile vel
Ġl ab
Ġab str
ic ult
ell ular
Ġhour s
Ġcre ate
Ġf urther
Ġthrom bo
ĠAmeric a
ĠC ity
Ġcigaret te
Ġd ou
st ere
Q P
he ad
retro viral
S T
Ġadmission s
ĠN orth
c ing
Ġn ational
u le
ĠIn st
Ġt aking
ĠD AD
ĠQ u
Ġhypothe sized
Ġunder reporting
ir t
Ġd imin
Ġpoly amide
Ġre d
olar s
Ġphot otoxicity
Ġrese arch
v iron
ĠG e
Ġbre ak
Ġfol ding
an a
range ments
Ġsp ace
ater ial
Ġrec ent
Ġcontamin ation
ĠA b
Ġana est
Ġgener al
Ġnar row
Ġh it
Ġro tation
Ġper iod
Ġdisrup tion
Ġem er
Ġevery thing
it in
Ġerup tion
ive ly
Ġpal atal
Ġph ys
Ġsay ing
an ks
Ġc ou
Ġc ult
ac ed
e al
Ġprofession al
u ation
Ġc oun
Ġnit ric
l u
eff ective
Ġinclud e
Ġpos ition
ĠA fter
ĠCan ad
ĠE m
Ġim m
ĠR ed
Ġp ick
ĠS HR
Ġcom pl
Ġm atter
re g
e xt
ang u
is c
o le
a ut
Ġcomp et
e ed
f ect
ĠRes pon
Ġ2 1
Ġnat urally
- /
ĠS en
Ġmuc in
ĠThe se
as ing
Ġcan not
Ġin it
Ġrel ations
ac hed
Ġb ar
Ġ4 0
ĠT H
Ġen ergy
Ġ201 2
ĠS ingle
Ġv ol
Ġg round
Ġsec urity
Ġup d
ĠCom mit
il t
ĠA CS
3 5
ĠG astro
Ġconc ern
ĠA ND
ĠJ ust
Ġwh ite
Ġseem s
os in
ĠH er
Ġpromo ter
pe cially
Ġdis ch
i ents
Ġann oun
Ġf ig
ight s
Ġst ri
l ike
id s
Ġs us
Ġw atch
Ġn ec
Ġ â
Ġres ynchronization
Ġw ind
rib onucle
aut omated
ĠC ont
Ġle p
ĠUnex pected
Ġtar trate
Ġit self
ĠNor th
Ġwe an
Ġm ass
Ġpe at
A l
Ġdistinc tions
y le
t ual
Ġis ov
iqu e
Ġex press
rom uscular
ĠN ational
el ta
Ġdeline ating
Ġab s
Ġindependent ly
phen yl
ĠMA GE
Ġp ack
Ġir radi
Ġm ercap
Ġout side
ĠP rophylactic
Ġan im
Ġcoun try
ĠND V
Ġp ain
Ġalle les
com pliance
et er
Ġadvertise ments
Ġman ag
å° ı
du ct
og n
Ġ ]
or tic
ĠSe pt
ves trant
se c
Ġu rologist
o ff
ĠJ an
Ġf oot
ad es
Ġstandardi zed
Ġth ird
ĠA ustr
Ġm ot
Ġli k
Ġev idence
a mental
Ġascer tain
int on
Ġth reat
Ġcall i
a pt
Ġcit ri
pl es
c le
Ġl o
Ġmic e
Ġde cl
Ġit em
med i
Ġrep resent
om b
am er
Ġsignific ant
og raph
Ġs ub
s u
Ġc al
i res
00 00
Ġconclusion s
I D
Ġbor on
A M
struct ural
Ġsim ply
Ġcruc ial
Ġ %).
Ġlong er
gen esis
Ġf ile
Ġsecre tion
O T
Ġne bul
c he
CA T
S o
Ġprescrib ing
ate g
Ġst raight
or g
res sion
Ġintra peritoneal
ĠH is
Ġen er
Ġd om
Ġup on
Ġmulti ple
il i
Ġen viron
": "
Ġtrans cri
Ġthem selves
Ġcom ing
Ġqu ite
Ġre pressed
Ġdiff icult
eth ylation
ĠB ar
Ġcomp uting
il ities
re l
end s
c ial
)) (
6 4
Ġwom an
os omes
ra p
y r
Ġne cess
ip s
Ġte xt
Ġrequ ire
Ġmilit ary
Ġre view
Ġresp ons
7 5
Ġsub ject
Ġlo ad
Ġinst ead
Ġiss ues
Ġg en
" ,"
Ġmin utes
Ġwe ap
ti ous
r ay
iz yg
am ed
vi er
t ime
s ts
ĠS ensory
b l
PS D
H ow
ĠPT CA
Ġc ode
def ective
ĠS m
Ġmicro c
Ġhig her
ĠSt e
r is
Ġp age
ogen es
Ġstud ents
ĠIn tern
get her
Ġmet hod
Ġto gether
ĠA ug
ĠP er
ĠA g
Ġpolic y
Ġhydro gen
ĠS w
Ġb enz
Ġex ec
Ġac cept
um e
rib ut
Ġelastic ity
Ġword s
oplasm a
Ġfin al
Ġmusc ular
Ð¸Ð ²
Ġchang es
Ġmon onuclear
ĠDem ocr
Ġfriend s
Ġres pect
Ġp orph
Ġe p
Ġcomp an
iv il
cri pt
Ġdam age
Ġ ÑĢ
** **
og le
viron ment
Ġunp recedented
Ġne g
Ġre operation
ent al
ĠQ T
Ġeros ion
Ġa p
selec tin
Ġtot al
iv al
! "
l im
Ġneed s
Ġextrac ts
Ġag re
Ġres ear
Ġdevelop ment
Ġa ge
ip le
2 1
Ġresult s
Ġad en
ĠA f
Ġcriter ia
S h
pec t
Ġg un
if ers
ĠOb ama
Ġsub scale
ret t
ro ll
Ġencoun ters
ore tical
Ġ @
Ġthrombo lysis
odyn ia
Ġright s
ĠB rit
Ġrun ning
Ġfl occ
Ġwas n
Ġindi vid
CD K
Ġp ort
Ġlact oferrin
Ġr ate
ĠE CG
pur ified
Ġpret ty
Ġisother m
Ġtarg et
Ġanaer ob
Ġsa w
Ġc ic
Ġc irc
Ġwor ks
ic ro
al t
Ġkidne y
o ver
ww w
Th at
Ġnanos cale
l ier
Ġevery one
ud e
Ġmoy amoya
Ġp ie
olec ular
ĠM II
idd le
Ġpredic tion
Ġcad ence
ra el
Ġlip odystrophy
Ġr ad
Ġoligodend rog
Ġbl ock
ĠAdap tation
Ġw alk
Ġl itigation
T o
Ġmul tic
ã ģ
OM s
n es
S HR
ĠA ust
es are
ĠNow adays
a ul
Ġprofil ing
te zomib
Ġendoc annabin
ro te
ĠS outh
ess ion
umb ar
op h
Ġshow s
Ġs ite
Ġj o
Ġr isk
cl us
ti g
l t
Ġbrid ge
Ġin j
Ġcoun ted
id ing
ren d
ĠS pe
eng er
Ġch all
Ġexhibit ing
ir m
Ġ2 2
itt ing
t ation
st r
Ġh ours
Ġh y
Ġt reatment
L E
ke y
Ġe ti
Ġbe gan
Ġimmun oglobulin
at ur
ashing ton
oc ystis
l am
ĠD av
ocic ep
b it
otherap eutic
Ġs ize
ĠSc ience
otherap ies
ĠP ar
luores cent
3 8
d op
ourn al
Ġj aund
f ace
Ġdec ision
ĠR adi
Ġl arg
Ġj ud
c ine
re ct
Ġcontin ue
ĠO ct
tim al
ove red
ĠI nt
==== ====
Ġp arent
ĠW ill
Ġeas y
I MS
Ġd rug
ĠQues tionnai
Ġgastr ulation
ang er
Ġcys tic
Ġplant ed
Ġs ense
Ġherbiv ory
Ġd i
Ġde pressed
ĠD Z
id ay
Ġener gy
ist ic
Ġass oci
ar ter
ob al
Ġnon parametric
e ks
ĠE l
ur ch
Ġg irl
Ġcot yled
o e
trans port
it le
Ġsmok er
Ġ2 8
ĠC he
Ġrequ est
i etin
Ġso on
Ġperturb ation
ĠIn hibit
Ġh ost
k y
Ġst ates
om es
dition ally
Ġm aterial
tiv es
le x
Ġatt em
Ġmom ent
Ġan sw
Ġrepe ti
on se
Ġs arcoma
Ġes pecially
ĠHear t
Ġn orm
Ġserv ices
Ġtra ditional
p ite
r an
Ġro le
4 4
o ugh
) :
Ġmech anis
ap e
Ġc red
Ġw hen
ast om
C l
ol d
ĠIn dex
d ifferen
____ ____
Ġepithel ial
Ġm at
Ġl og
ĠCl inton
O U
Ġoff ice
ad oles
Ġ2 6
arp al
Ġch arg
Ġsyring e
Ġtr ack
ĠEmb ry
m a
Ġgl omer
Ġestim ations
Ġhe art
p ts
Ġadap tation
Ġb all
Ġnanopartic les
Ġperson al
Ġbuild ing
n a
s et
b ody
entr ic
ĠBl ack
Ġincre ase
ĠWhe reas
itt en
Ġinoc ulation
Ġneed ed
Ġphot ore
3 6
ven tions
3 2
Ġcon cer
= "
Ġl ost
Ġbec ame
Ġhippocamp al
Ġgrou ps
ven tive
ĠM us
Ġw rote
ĠP e
ĠA ME
Ġpro p
Ġco administered
j oy
Ã ©
Ġjustif y
ĠWh ite
Ġde ad
racycl ine
. '
Ġhyper sensitivity
ĠEMB ASE
Ġhtt p
ĠUl tras
is sip
Ġwe bs
Ġt ensile
O S
Ġaeti ology
Ġins ide
Ġwr ong
Ġstat ement
pr inc
Ġ ...
y l
Ġfil m
Ġmus ic
Ġsh are
spec trum
ific ation
Ġnan ofib
Ġre lease
Ġdisper sed
Ġfor ward
arach noid
Ġst ay
Ġpost partum
Ġcomp ut
ter al
it te
Ġfol lic
s er
Ġdem entia
Ġorig inal
Ġc ard
Ġc and
Ġd iv
at ural
Ġfav or
O M
Ġc ases
Ġac tin
us es
end ent
ang l
Ġse ction
Ġne w
Ġresid ential
Ġle ave
quin one
g ing
Ġoste oblasts
ov ed
ĠN AC
ĠW ashington
3 9
ĠG l
Ġtom ography
Ġrequ ired
Ġw oman
act ion
ap an
o or
Ġne ph
it er
ĠIF N
def icient
ĠK ing
Ġim plants
Ġcount ries
ĠAnal yses
ĠG erman
Ġtra um
Ġinsec tic
ll ing
as ts
Ġ2 7
3 4
Ġquest ions
P V
Ġpr im
Ġc ell
Ġex amin
Ġsh oot
si on
Ġany one
Ġgu an
ĠW est
ĠPA MAM
Ġaff ect
lec tomy
çļĦ å½±åĵį
ep end
Ġprovid ed
Ġon line
ĠIs rael
Ġs emi
ĠSept ember
vir al
Ġab ility
Ġcont ent
is es
Ġre ve
Ġl aun
Ġdec reas
Ġind ic
os pit
Ġfor ce
on str
Ġt arget
c ast
Ġso ld
av ing
f l
Ġso ft
Ġpl anning
Ġcompan ies
Ġintrac ellular
ce ed
P CR
ĠB V
Ġart icle
opath y
Ġco factor
Ġa ud
Ġre v
Ġass emb
Ġed uc
Ġsuppres sor
Ġplay ing
0 5
Ġhe ld
ct or
Ġrele ased
Ġf ederal
3 7
Ġad minist
Ġinter view
Ġinst all
Ġrece ived
Ġtransm is
Ġs ource
u k
P h
Ġser ious
Ġres ili
Ġcre ated
Ġsch ool
Ġc osm
Ġc ause
Ġim medi
Ġdef in
u el
ĠDep artment
Ġphosphor yl
ct ions
Ġs ph
ĠC our
Ġschem e
ĠN ow
z e
it es
co h
it ution
pec ted
Ġl ate
Ġspe ak
os ts
n ers
Ġleg al
ar i
Ġdis mut
ĠC or
ĠE BV
Ġwe eks
Ġimplic ated
Ġsoci ety
Ġmod el
Ġp red
Ġex act
Ġ up
B C
ĠB y
Ġsynt hesi
IN G
Ġcompos ition
os ing
Ġhyp og
Ġt akes
ast atin
Ġreg ard
Ġper ic
Ġopp ortun
qu id
Ġc entr
Ġpr ice
Ġ19 8
Ġcong ru
ĠA pr
b ran
f ully
Ġcirc RNAs
Ġor d
Ġkin et
Ġproble ms
b odies
Ġsulf on
ru ction
Ġenviron ment
e valuation
h am
Ġacid s
sm ooth
ĠC ount
Ġsub gen
le ge
Ġlead ers
Ġint ram
E T
Ġsil ic
Ġgl ial
le v
ti f
Ġb rid
ent eric
Ġde ep
ut ri
od ial
amin es
ech an
olog ical
Ġtrain ing
Ġop tic
Ġsil ica
Ġsug arcane
es e
Ġph ysi
Ġcarri er
Ġepis ode
h aps
ĠS ome
ode grad
Ġp ers
ce ment
Ġcont ract
Ġmo iety
Ġrelations hip
ĠMyc obacterium
s p
ur ane
ou d
Ġselec ted
Ġb ase
4 8
Ġform ed
m it
A d
anc ial
Ġinter cellular
Ġcons um
Ġpot ential
Ġl angu
re m
Ġdors olateral
et h
i Ã³n
im ers
Ġrel ig
Ġe vid
Ġsitu ations
Ġparas ympathetic
ress ed
Ġling ual
6 6
Ġlect ins
Ġl ink
Ġf ung
diff erence
Ġl ower
ĠH CMV
ay er
med ication
ĠJ une
ph yl
Ġdeaf ness
Ġf em
Ġintercon nected
un t
in duced
ĠDNA s
er c
oe ba
ur d
Ġper s
Ġcont act
Ġt reated
Ġ ill
Ġpath w
Ġm other
oc yt
Ġest ab
h tt
y si
ĠM arch
romy algia
ĠB ro
ĠCh ina
R CT
Ġ2 9
Ġs qu
Ġprov ided
i tions
Ġa verage
Ġop tical
as ons
Ġ201 1
Ġfa una
Ġex am
Ġperipl asmic
l in
oti de
ig hest
5 5
Ġdes min
n ed
e NOS
Ġper fect
a icin
ĠE DS
Ġt ou
ophyl line
ĠS RT
al se
ĠH AV
u x
Ġbu y
Ġsh ot
Ġinsem inated
Ġcol lect
Ġmod elled
Ġhemicell ulose
Ġph ot
irater one
Ġplay ed
i D
Ġsur pr
Ġthe ca
Ġofficial s
Ġlev amisole
Ġsim ple
ĠInvestig ating
av y
o lec
ĠDoc tors
Ġindust ry
Ġcon tex
Ġse arc
L ET
Ġhand s
Ġpow er
a emia
if uge
g round
ĠB CA
Ġp ull
Ġr ound
Ġus er
Ġr ange
u ary
Ġevalu ate
Ġpriv ate
Ġli ke
Ġinvas ive
op s
e es
Ġw ays
am yl
ĠM ich
lud ge
Ġve h
Ġm TOR
Ġex cept
Ġmet all
Ġax onal
Ġter ms
Ġsup pression
ores is
Ġsh unt
im um
Ġenviron mental
Co A
pp er
u ter
Ġper ovsk
I ON
l ateral
ore s
ex change
ĠE mp
ĠDr agon
Ġimm er
our ished
ou l
Ġdiscrimin ative
Ġd en
Ġperform ance
Ġexc re
Ġb ill
Ġelec tr
c il
4 7
Ġen vironment
Ġex c
ad d
Ġwor th
Ġimmunosup pressed
Ġp ict
ospor a
Ġch ance
Ġ201 8
b or
ge al
Ġspe ed
Ġdele tion
ict ion
Ġhyp oth
Ġal leg
que ous
ĠJ apan
Ġpossi bly
at ory
ococc us
re et
Ġinfarc tion
Ġm atch
Ġop i
ĠI I
Ġcomm erc
Ġst ru
li ke
ord er
Ġst e
Ġl iving
Ġspon taneous
Ġst ruct
in o
Ġse par
FA s
her n
Ġresp onse
ati dyl
Ġen joy
Ġv ia
Ġnicotin amide
A D
en tion
um ents
ici ency
Ġaneurys mal
ace book
ĠT AP
Ġmem ber
ib r
iz ing
Ġto ol
ĠM on
oph il
ĠWh ile
Ġf rag
per fusion
h ood
Ġmy ocardi
Ġvi ew
ĠA ng
Ġglob al
ĠD ef
Ġcorrespon ding
Ġoff er
Ġtraff ic
T r
Ġneuro protective
a ur
Ġext inc
Ġexpl ants
Ġturn ed
he al
Ġdent ure
ĠJ uly
Ġplac ent
d own
Ġprim or
an ced
Ġrec ently
ĠE ar
Ġcompon ent
Ġc e
Ġker atitis
ĠSt ar
Ġoc ta
ĠC ong
Ġlip osome
Ġket one
rough t
ph os
Ġbl ood
os an
Ġser ologic
Ġhop e
per form
Ġcom ment
Ġaut omatic
ain t
Ġb ic
ĠÐ ±
Ġar ri
Ġoxid ase
yle tic
il es
ĠNin ety
ĠC FS
Ġpartic ip
ud an
ough t
ri ption
0 8
4 9
Ġs ection
Ġg ave
Ġse lect
Ġprel iminary
Ġkill ed
sy ch
Ġgo es
oc h
i j
Ġc oll
cha emic
Ġimp act
A kt
at ives
Ġac tive
Ġtoler ability
ĠS er
Ġv er
G ly
0 9
Ġdiab etic
TB I
ĠAug ust
Ġas thm
âĢ ħ
Ġend otoxin
Ġb oy
Ġser ine
d e
Ġg rain
S MA
ĠD es
Ġunivers ity
CA P
Ġf elt
inc luding
obacter ial
U S
ed ical
Ġdis ulfide
cip arum
Ġexpect ed
ifferen ti
Ġim age
ĠM ark
s ection
cc ording
Ġrespon sible
ĠOut comes
o ice
Ġhep atic
Ġperiod on
E C
Ġattemp ted
ĠM ag
Ġpic ture
en ed
Ġnit rate
Ġcol ostomy
h old
Ġcentrom eric
ĠP ost
ver sion
Ġpre vent
Ġfac t
N o
Ġevalu ation
Ġinvol ved
Ġey es
Ġquick ly
Ġimplic ations
A t
H b
un k
ĠOx ygen
Ġbeh av
methyl ated
Ġ ur
Ġl ed
Ġorg an
c ome
e y
Ġcand id
Ġear lier
Ġb uff
Ġfoc us
et y
P ro
led ge
ix ed
ill ed
H s
Ġpop ular
A P
Ġprot ected
Ġset t
odial ysis
l ight
we ighted
ĠQu antif
Ġvar ious
othe l
in ks
Ġlevel s
Ġro ad
uc t
ell ig
ab olism
ab les
Ġun ivariate
Ġpolar ity
he l
tr ic
A UC
itte e
ĠG enetic
ĠG ener
Ġtransf ection
y pe
Ġhe ard
ic les
Ġfluor oscopic
Ġm is
ĠAs s
ĠRe vision
Ġus ers
Ñĥ Ñİ
ĠS an
Ġcons isted
Ġflag ell
Ġimpro ve
Ġconcentr ate
Ġf ather
Ġr ituximab
Ġse arch
The y
Ġgen der
v il
Ġprof ess
Ġdetach ments
Ġkn ew
ĠAT V
Ġl oss
Ġfer rous
chol ines
Ġev ents
reas ts
Ġtal in
6 5
roscop y
flow er
is cer
Ġb illion
ogni tion
FV C
Ġdi encephalon
0 7
Ġcl ast
0 2
um ul
ĠSt AR
ĠNew s
Ġiniti ally
d us
ĠA M
ĠC CE
Ġco ver
di am
w here
Ġintegr ity
Ġmon od
ens ion
ĠCI I
Ġb ott
Ġmuc il
Ġare as
en ces
Ġpro duced
op e
ĠTw itter
a el
ĠPhysi ology
Ġget s
inter ventional
ĠGo ogle
Ġs n
at uring
i ant
Ġcir rh
Ġv ote
ĠE lec
Ġnear ly
pos ite
Ġinclud ed
Ġrec ogn
Ġdifferen ces
z z
Ġtech ni
m m
Ġpup illary
al ed
N b
Ġhappen ed
Ġjudge ment
0 4
Ġamplic ons
Ġh ot
Ġshr ub
Ġwho se
Dec ember
Ġc ivil
Ġmon t
Ġsu ff
Ġche z
o es
Ġsphe roid
it iz
ĠS ym
P RI
ĠSy ri
Ġe icos
Ġresp ond
ĠR PA
Ġh on
Ca T
Ġfeat ures
Ġcle fts
ole oyl
Ġeconom ic
ulf ite
ĠApr il
Ã© g
r im
Ġtechn ology
Ġo ption
z ard
ag ing
s ensi
Ġpur ch
Ġs ingle
Ġrati os
R e
ĠInf lamm
Ġl at
on or
ch ie
is l
Ġrec omm
u f
Ġtr aining
Ġconc om
Ġeffect s
Ġcap ture
Ġf ast
Ġattrib uted
Ġ201 0
Ġde position
Ġocc ur
ra b
ven ess
Ġwebs ite
Ġevid ence
Ġfr actions
Ġem ail
v ate
Ġs ens
Ġup regulates
e ch
Ġprovid es
å± ķ
Ġo il
Ġcol l
Ġpap ain
Ġinf lu
Ġcurrent ly
Ġinf orm
ĠS ch
Ġdi amet
ĠAd d
Ġgo al
Ġinterfere s
Ġsc ient
Ġsch iz
ic ola
Ġcon v
1 00
or ubicin
em y
kn own
rosp inal
Ġdec ided
Ġapproxim ately
Ġsup erv
Ġtra vel
Ġm ention
Ġpes tic
L L
Ġanalog ue
0 3
ec tom
Ġe lection
Ġsequ enced
Ġph one
Ġlook s
Ġsit uation
ĠE CC
Ġc y
yl v
Ġh or
b ed
Îº B
ĠCour t
a ily
av es
Ġqu ality
ĠCom p
Ġconcentr ation
w ise
Ġt able
Ġst aff
Ġimmun odef
ĠW ind
Ġecon omic
Ġre adily
et t
et in
Ġtherm odynamically
Ġtri ed
Ġgene tically
Ġcal pain
om ata
ide red
Ġc ros
C ys
sc anning
Ġadd ition
Ġac ts
up take
Ġa OR
Ġb ox
Ġend ocrine
Ġl ack
ili ac
ar ily
Ġtech n
R OS
Ġw ide
Ġguid ed
Ġm id
Ġshel l
Ġbo ard
Ġinhibit or
ys is
Ġant i
ial ly
h a
Ġd ig
en ing
Ġd ro
C on
6 8
Ġattenu ate
Ġsl ow
hesi a
b ased
se qu
Ġp ath
Ġcomp lic
E x
ow ever
ak er
Ġwork ed
Ġp en
Ġeng ine
Ġcontain ed
Ġlook ed
ĠSu per
ĠS erv
Ġvict im
om od
U n
Ġinc ontin
Ġproper ty
ot rophic
Ġendotox emia
Ġint rodu
Ġfung i
ĠM olecular
cin osis
Ġexec ut
Ġrheumat oid
Ġbreast fed
ĠP M
L e
Ġadhe rence
Ġcol or
Ġconcer n
ti p
ĠM ore
Ġtren d
met astatic
Ġ6 0
Ġtranscri ption
ep t
ĠRES ULT
Ġnet work
stim ulation
Ġd ate
Ġpathological ly
c ul
id ge
he aring
Ġext ra
Ġgr ise
3 1
Ġdecreas es
* -
Ġs le
vere x
è ģ
6 7
con trol
Ġw ond
Ġreport s
j ust
ĠAust ral
Ġcap ital
Ġen s
Ġcomm and
Ġreduc tions
Ġallow ed
s ug
Ġpre p
Ġca pt
Ġbacter ia
h ib
Ġnum bers
ra in
ch an
Ġf air
Ġhar monic
m p
om s
Ġchan ges
Ġre ach
mat rix
W ith
Ġa ort
etu ximab
t ain
ÑĢ Ñĥ
Ġbro ad
Ġwave let
Ġcou ple
RNA s
ec ause
Ġprogn ostic
ly ing
Ġspati al
ĠF eb
Ġsc reen
Ġl ives
Ġpri or
ĠCong ress
A r
Ġquin idine
Ġappro ach
Ġrep tiles
Ġe mer
ĠP EC
ar ies
ĠAr ticle
ĠD is
Ġdissoci ate
s erv
Ġepis odes
ĠN e
Ðµ Ð½
Ġbu ilt
c ies
Ġre pe
Ġrul es
for ce
ĠP al
Ġri ver
Ġfin ancial
Ġcon g
ĠG AD
Ġcons idered
Ġventi l
am ides
ĠCh ar
Ġattrac tive
Ġsy ph
n ces
ol ol
ĠI S
Ġb rought
ĠAn g
Ġb i
om ere
Ġsynthesi ze
i ers
Ġauto anti
ĠS im
Ġpul ses
O P
odyn amic
Ġproduct s
Ġvis it
Ġdoc ument
Ġcon duct
Ġcomplete ly
in ing
ĠCal if
Ġex on
ib ly
ĠInstit ute
Ġwr itten
Ġnon linear
Glc NAc
ĠT V
Ġcaus al
Ġanis otropic
em ents
Ġneon ates
Ġempir ically
Ġd raw
Ġneurotrans mission
O ne
th reshold
Ġpub lished
Ġcoun ties
h ous
Ġsec ret
Ġcan als
ĠY M
r ain
MD R
ĠDic er
he t
Ġgen otypic
Ġradiotrac er
ĠF acebook
ond ay
ĠU p
Ġsex ual
Ġth ous
ĠP at
Ġmes h
Ġ ess
Ġset tle
Ġstand ard
pl asm
Ġar m
g es
Ġinter leukin
ect ion
Ġf ell
Ġfore ign
Ġre vision
an i
Ġh ierarch
ĠDe pression
ĠFr iday
Ġminim ally
âī ¤
Ġreg ular
in ary
Ġincre ased
Ġus ually
Ġdem on
Ġd ark
Ġadd itional
âĪ ¼
ro l
ĠO f
Ġprodu ction
! !
und red
Ġintern ational
g ens
id ents
Ġsm o
ĠF ree
ne gative
ĠIn tense
rou p
Ġlyso zyme
ĠCa SR
Ġr ace
Ġgon dii
Ġsustain s
Ġm ach
Ġquin pirole
Ġh uge
os ome
agglut inating
A ll
Ġno tic
le ar
ove mber
Ġeff iciency
Ġto wn
Ġc us
Ġatt ention
Ġantic ip
ĠO ff
ĠB MD
y ond
Ġhorm onal
Ġhydro cephalus
ĠThe n
ĠCon trol
Ġsat uration
ĠEx t
f ield
trans l
Ġter ror
Ġcolon y
Ġelectr ic
ra z
Ġmon ol
cel and
ĠB o
ĠRNA s
Ġanterior ly
Ġmeet ing
ti tial
Ġtransl ational
ĠPD X
ĠP ark
ha zard
ĠH SP
Ġmer istem
Ġar rest
Ġdet ecting
aclop rid
Ġf ear
on tium
Ġa w
i O
Ġcardi oprotection
ĠV al
cep ts
roph izing
or ing
Ġtes ticular
' ,
Ġex trac
Ġaspir ation
Ġext reme
ar r
Ġwork ers
A fter
tr y
Ġ3 1
n et
Ġphosphor ylation
am ent
Ġre fer
å¯ ¹
Ġdirect ly
Ġpop ulation
us ted
ub e
ĠOct ober
ĠI N
ĠJan uary
Ġint olerance
5 9
ĠDav id
Ġc ross
ce mber
b ility
ĠF irst
Ġmess age
+ )-
ir it
ĠM DS
Ġn ation
Ġp oll
is ions
Ġtask s
Ġansw er
n y
Ġne ovascular
is ode
o ter
Ġsphe roids
Ġcar ry
T n
ĠRuss ia
Ġg over
Ġhe ar
eng th
endym al
ro y
Ġstigm as
Ġn atural
B m
in ally
Ġop pose
Ġdo g
m itted
Ġtr ade
Ġsub st
Ġmult iple
ĠAf ric
Ġf ans
Ġs ort
Ġgl obal
Ġmetamorph osis
ic ation
ĠW ed
ar a
Ġa chie
Ġmonol ayer
Ġlangu age
Ġfem ur
ve y
Ġimmunosup pression
Ġt al
Ġamelior ation
Ġnecess ary
Ġreconstit uted
Ġdet ails
Ð° ÑĨÐ¸
Ġs en
ĠS und
ĠRe g
ĠR ec
kele tal
0 6
Ġd ynamic
Ġs il
Ġtran si
Ðµ Ð
ress ive
Ġmed ical
un ch
orn ia
ĠD BP
Ġu nd
f ort
oc ks
Ġseg ments
ĠM onday
ues day
c raft
7 7
ur t
Ġ ver
ĠH ill
Ġrece ive
Ġcolos trum
Ġmor ning
es tern
Ġb ank
Ġs at
ir th
ĠH igh
Ġdev ice
ĠTH E
ĠCent er
Ġsaf e
Ġp le
ĠCanad a
Ġcor ne
Ġsystem s
Ġass ist
Ġsur v
Ġb attle
ĠS oc
vert is
S he
Ġp aper
Ġgrow th
Ġc ast
S c
upl oid
Ġpl ans
Ġinflu enzae
ll ed
ĠRec e
Ġpart s
Ġw all
Ġmove ment
Ġpract ice
im ately
Ġdis play
Ġsomet imes
om p
ĠP aul
ĠY es
k ing
5 8
om otor
o ly
Ġorganis ms
as te
Ġs on
Ġmyocardi al
Ġav oid
Ġmus t
ok es
Ġrec onstruc
( +)
ĠJ ew
Ġind ole
Ġto wards
est rogens
as c
Ġsem istructured
Ġ //
tr ac
Ġfron to
ĠK ore
n al
Ġtub erc
Ġtalk ing
Ġto tal
lud ing
Ġb enthic
Ġcor rect
opro t
ĠRe port
Ġtig ecycline
Ġsp ent
Ġextre me
l act
ic ks
Ġprinc iples
Ġf inally
i able
Ġslow er
e ared
Ġcons ervative
apopt otic
Ġter m
Ġepiderm al
Ġmin d
Ġwant s
s orb
Ġvis ceral
om ing
l ands
Ġ ut
Ġdou b
im umab
Ġfor ces
Ġcaud ate
Ġp lease
6 9
ĠN ovember
ch ym
at form
pro l
ond on
end emic
Ġon es
cell ulose
Ġindol ent
Ġimmedi ately
Ġcasc ades
d imension
ĠRuss ian
Ġrelap sing
ĠPredic tors
ĠM et
ith i
Ġde g
o val
Ġparent s
tis one
C H
Ġrot ator
ĠAmeric ans
Ġsupram olecular
al y
Ġn emat
ĠM od
Ġsh own
Ġcond itions
Ġst uff
Ġre b
ĠY our
Ġinclud es
n own
Ġins uff
ĠS am
os ide
Ġexper ien
m ission
ĠE ven
augh t
Ġannoun ced
ĠRepublic an
Ġdeter min
Ġdescrib ed
ĠCount y
( )
Ġdo or
Ġchang ed
Ġelast ography
Ġne igh
ĠH ere
Ġsmok ers
Ġcle an
ep ti
Ġp an
Ġap plic
Ġch itosan
ĠDe cember
ĠEurope an
ir ing
ap ter
Ġcl ub
ĠT uesday
Ġp aid
ĠN et
Ġattack s
Ġsut uring
Ġcharact ers
Ġanest hetic
Ġprospec t
Ġal one
st andard
Ġsacc ade
Ġdirect or
Ġdiagnos ing
Ġarchae al
d om
Ġg ynec
Ġ3 5
Ġg ood
fl oxacin
Ġl oad
Ġr out
ĠCalif ornia
Ġfin ally
Ġr ac
Ġcont r
ĠL inear
Ġexact ly
res h
hesi ologists
p ri
Ġpa ren
ĠIs lam
Ġn ature
Ġcare er
ĠIn t
Ġlat est
cephal us
Ġcon vers
ĠS l
Ġmeth adone
p ose
Ġtet racycline
ĠP HA
ci ent
Ġeukary otes
Ġim atinib
ĠIn c
Ġvibr ational
iv ity
Ġgent amicin
8 8
ĠA tt
ĠM or
nes day
Ġwe ight
k en
Ġnot e
Ġlid ocaine
Ġteam s
Ġp ec
Ġ \
air s
ĠG reen
Ġprost atectomy
Ġh undred
ti pation
on ent
se al
Ġstre ng
ĠEle vated
Ġcons ist
ic ated
Ġb reast
Ġreg ul
ĠV LDL
Ġl ic
ä» ¥
ast ic
Ġprac tically
Ġt en
et ron
urs day
ogene tics
ellig ence
ĠGl asgow
ous ly
ĠU K
B I
Ġcost s
ĠSix ty
Ġind epend
in in
ĠA P
Ġnorm al
Ġh om
Ġob vious
Ġs we
Ġst ar
Ġread y
Ġc ervical
ac her
s tim
Ġimp lement
un dibular
g est
Ġphysi opathological
Ġs ong
cep tor
Ġframes h
ĠG et
ĠRemark ably
Ġstrip ed
ĠL ab
Ġmyc obacterial
ĠNit ros
Ġinterest ing
cepti ble
Ġsleep iness
Ġhus k
us ing
ragm atic
Ġantihist amine
Ġg iving
ĠG VHD
ĠSund ay
Ġhazard s
Ġincid ental
Ġet c
Ġax ons
meas ured
Ġm iddle
Ġendomet ri
S aharan
Ġrem ember
r ight
å¢ ŀ
os ition
Ġimm ig
ĠT IP
ut ions
Ġsuc cessive
ful ly
ĠBL AST
Ġm ax
Ġang ina
entan il
Ġdensit ometry
4 6
Ġhar ves
Ġstran ds
Ġyour self
ĠE PO
Ġdem and
Ġp ineal
Ġtreat ment
em erg
Ġd anger
os ulf
ĠC ons
Ġpr ur
Ġgu y
ĠBrit ish
Ġphys ical
Ġrel ated
ator s
Ġrem ain
Ġcould n
Ġref er
Ġc itiz
b ox
EN T
ĠMT T
bo ard
trac ellular
Ġin n
é Ļ
I G
Ġneu rop
er o
Ġvari able
ĠSt reet
osp ital
ren ch
cher s
Ġst ra
O L
ag er
ĠA N
ĠAd verse
Ġeas ily
ol one
I A
en ge
in y
Ġcl os
Ġh an
ock ed
Ġpa ir
ĠF RS
Ġus es
ol ip
ĠV HA
ĠC oun
I m
hen ol
u ild
? ?
m ore
Ġan g
Ġwr ite
ol ute
Ġsc rip
5 7
ĠRA I
Ġlead er
Ġread ing
< /
Ġaut om
Ġprioriti ze
est s
Ġsubclass es
4 3
Ġleg isl
ĠG old
Ġdesign ed
ĠS T
ĠLe g
a res
Ġbe aut
ĠT ex
Ġappear s
oc utaneous
Ġstru gg
Ġtri phosphate
ĠR om
ĠCl us
Ġ 00
Ġcho ice
ĠD orsal
Ġparticular ly
Ġgen dered
ĠF rom
ar ri
ting ent
op er
Ġform oterol
ĠL ondon
ĠAden ovirus
ann ed
one gative
n anos
Ġallow s
Ġprot ons
Ġmaxim us
ob ile
Ġol ig
anth ine
Ġfeedst ocks
Ġdiffere nce
Ġdi azepam
Ġfollow up
Ġpres elec
âĢ ¢
ĠC PP
Ġcompeti tiveness
ĠV iew
Ġcategor ical
Ġinsectic ide
ĠSY BR
ĠWed nesday
Ġjus tified
Ġsacchar ification
Ġal though
Ġblast ocyst
Ġsynten y
Ġrel ative
Ġex tern
Ġindefinite ly
Ġapplic ation
us t
ĠM otor
Ġremineral ization
ate ver
d ys
M NC
Ġare n
ĠSoci o
ell in
Ġmy self
Ġrifamp in
Ġim ag
Ġdis e
Ġsoc iety
Ġfre qu
ĠEng lish
Ġpo or
ĠD ay
Ġwrit ing
Ġse ven
Ġstart ing
Ġdivid ed
Ġb ud
Ġpr int
Ġdirec tions
ĠTr ans
Ġintra oral
uf act
ĠSM AD
ĠSt ud
Ġpr ono
CC P
n ew
cy te
f olding
Ġcr im
ag inous
Ġg ives
Ġmyel odys
Ġco ol
Ġsynerg istic
ĠLang muir
a e
ĠDi ab
Ġmit omycin
i ance
Ġs af
ĠS urgical
D FS
ĠGener al
AP s
Ġthink ing
Ġprob and
Ġsa ve
Ġchlor hexidine
Ġlim ited
Ġdialys ate
ĠPart y
Ġmean ing
p en
es ted
ow ers
ĠJ ack
E M
IF ICA
Ġn ice
Ġup take
ĠSU A
ru pt
Ġpolym orph
ĠDQ B
Ġg as
ĠDT H
Ġe ight
ra y
or ase
Ġfe et
Ġeff ort
Ġ ign
ic it
B l
il ized
co in
Ġline arly
Ġop in
oscop e
Ġbr ain
Ñ ħ
Ġw orm
Wh ile
or ac
e tics
he st
duc t
ĠTh ursday
Ġap plied
Ġb und
Ġwould n
augh ter
Ġtou ch
le ments
Ġstud ies
Ġcent er
c ont
Ġspectr um
or ge
os ine
Ġcomput er
Ġdefec ation
Ġinvestig ation
otrig ine
P l
Z F
or ks
Ġ200 8
Ġincre asing
Ġst ore
Ġcom ments
Ġro str
Ġb al
Ġunc oup
m en
Ġo vari
ĠS UV
Ġdo ll
Ġenrol led
Ġle a
ĠG ATA
Ġl iber
Ġin ser
Ġde ple
E K
Ġw ife
Ġepilep sy
rec tion
Ġlaw s
ocy tic
Ġintr act
ĠP HF
atur day
ĠNiger ia
Ġcross link
it ness
r ater
Ġmod ern
Ġsensor imotor
ĠS k
Ġsubcutaneous ly
Ġadminist ration
adi um
oc arb
Ġopportun ity
or in
Ġbo ok
Ġs al
Ġsp i
Ġpup s
ĠP RP
Ġpower ful
Ġblock s
Ġintra peritoneally
amin idase
M y
th rom
Ġj aponic
Ġclaim s
ĠSub jec
Ġtempor ally
ĠEar th
ĠS OD
Ġincon clusive
ord s
galact osidase
Ġt itle
ĠSix teen
Ġtun n
Ġes c
Ġbot tom
n ame
orb ol
N ot
Ġap olipoprotein
Ġres pir
om en
Ġexper tise
Ġn ivolumab
Ġbe yond
Ġdrople ts
Ġantis ocial
Ġc amer
Ġinterfac es
Ġfat s
Ġse ll
Ġex isted
a HR
it ute
Ġdyst rophic
ear ch
Ġic tal
Ġapp l
ĠG K
im ent
ĠAber rant
4 2
Ġnumb ers
Ġarth ro
ĠAr t
Ġdef ects
ĠBAL F
Ġun f
Ġal b
ĠEnd oscopy
Ġviol ence
Ġtransl ocation
Ġtre mat
ur g
omon as
ri le
ĠL amin
ĠE ast
ĠAg greg
Ġcomp ared
Ġp alsy
Ġextinc t
Ġopt ions
phosphatidyl inositol
Ġthrough out
N HANES
Ġv s
Ġover sight
ig r
Ġdifferen ti
ĠO scill
. [
Ġcycl opent
ac hes
Ġab duc
7 8
Ġdiscus sed
Ġwater borne
Ġfil es
Ġod ds
Ġbudget s
F L
oscop y
ER D
Ġorganophosph orus
E L
ar ian
ĠJ ames
ĠA ir
dal ton
an ch
R CTs
ĠEpid ural
Ġdet ail
Ð¸ ÑĤ
ĠB SA
Ġcellul olytic
Ġpie ce
ĠCr ypt
P S
Ġdiscrimin ant
Ġn amed
Ġrepres ent
Ġf eces
Ġeduc ation
Ġt ypes
ur ic
op id
Ġdri ve
Ġlob es
Ġitem s
ap it
Ġstud ent
ic ed
Ġbiom edical
: :
yt hem
SP ME
ic o
Ġre acting
ĠÐ´ Ð»Ñı
Ġth row
ĠPneum onia
Ġsc ene
Ġaver t
Ġcomple x
Ġackn owled
Ġurs odeoxycholic
Ġ200 9
Ġaro used
Ġpre c
Ġper oxid
dos age
ĠB re
eli hood
S EA
7 9
Ġmicrogra ms
gra vity
Ġcon cept
vi ations
Ġstat us
ĠGAD D
am ing
aba ena
Ġd ied
Ġsug ars
Ġknow ledge
Ġbegin ning
O D
oti des
ru ary
Ġcertain ly
Ġgu ys
mut ated
Ġsl ight
Ġx er
in n
ound s
Ġf ine
Ġam oxicillin
Ġf at
ic ations
Ġin hibition
Ġper haps
ĠA nt
Ġinc ome
Ġhtt ps
re active
Ġmajor ity
port s
st on
Ġgreat er
Ġfe ed
ent ially
Ġsaf ety
Ġun ique
and om
enc ies
Ġg one
Ġcont rib
Ġshow ed
Ġcon tr
ov agal
Ġhist or
Ġtim e
aps one
Ġcoun ter
Ġeffec ts
di oxin
i us
oph ysi
Ġmy otomy
id a
EGF R
Ġlead ing
i pe
Ġs end
ĠDon ald
ĠSur vivors
er ve
Ġtrim eric
Ġdef ense
ines e
ĠC RP
Ġy es
ĠF ire
Ġno tifications
ĠMus lim
ĠIs l
leb itis
ra q
ĠGal NAc
ĠMultid isciplinary
Ġcontin ued
rom od
ĠCit robacter
os h
Ġul tral
Ġcet yl
Ġprov ides
Ġapo A
he ating
Ġhyper lipidemic
Ġpr ison
ĠS light
ĠCol le
ĠP re
H SP
rit ol
oxy carbonyl
Ġhapp y
o un
ic os
ĠPop ulations
Ġ39 1
Ġeconom y
Ġob es
Ġphosph otransferase
Ġcyan osis
Ġtr ust
Ġinfec tions
ĠNeu rologic
Ġincomp etent
ag s
Ġamin o
dil ution
ĠG ame
6 53
Ġweap ons
ĠS inus
um an
cop per
bran ch
ĠC le
orec tal
Ġaut onomously
Ġmed roxyprogesterone
it ation
Ġfo etal
Ġstent ed
Ġanal ysis
ec tive
iz ability
SA C
ĠT imes
Ġsalping o
Ġsc ience
åĦ ¿
- >
ascul ine
Ġfig ure
Ġdis app
Ġmicro p
ent y
ur ition
Ġsoft ware
Ġances try
ĠA OFAS
Ġu lt
Ġremo ved
Ġintra vitreal
ĠL ND
Ġoffic ers
Ġdirec tion
Ġdistor ted
Ġcrystall ographically
N ew
Ġevalu ating
Ġ2 05
am iento
Ġunderex plored
I s
ĠC LD
ĠG J
annot ated
Ġrem ains
ĠSp e
9 32
ĠInd ia
Ġpropag ated
CR L
Ġp sych
Ġstart le
cyst ins
ri ef
Ġpres sure
Ġc at
es c
Ġin teg
Ġob serv
uc ol
Ġst age
ĠD ark
Ġent er
ch ange
st olic
Ġpass ed
r yl
Ġdes pite
cl usive
ĠO ut
Ġmov ie
r s
Ġv oice
Ġcontain s
m ine
en ia
ĠC EA
ĠPl ay
Ġfac e
Ġvascul ature
Ġto ward
Ġneo adjuvant
Ġp Ãºb
ĠT er
Ġinv as
ĠC ognitive
Ġin g
Ġreg ion
O CT
eu ro
Ġval ues
Ġre pres
Am eric
Ġcent enarians
or ters
Ġdi ab
Ġcarbon ylation
Ġm ount
Ġfum es
Ġoffic er
ĠÐ· Ð½Ð°Ñĩ
ĠO ther
ĠTechni que
b an
Ġveloph aryngeal
Ġh ous
Ġques tions
Ġaft ereff
w ood
gl uc
Ġdys p
R BV
ro om
I V
ĠS un
anc ed
se e
Ġlo ud
ĠO ver
ture d
ro g
ph ig
9 0
Ġl ay
ĠT ur
a wn
ĠM SCs
Ġpress ure
Ġend ovascular
ĠS ub
Ġc odon
Ġbook s
ed om
HO MA
ĠS and
Ġeros ive
A A
Ġstere oselective
ag o
Ġformal ism
Ġre asons
inn itus
f ord
rop ol
Ġactiv ity
th ick
U T
N ow
ĠSen ate
ce ll
n ight
Ġcall s
in ter
Ġhum oral
Ġlet ter
Ġremo val
sec re
ĠR ob
ĠWil coxon
ĠJ e
Ġcontracep tives
Ġcho ose
Ġinstruc tion
opo e
ĠL aw
Ġingredi ents
G et
Ġw elfare
inc t
B e
Ġhyp o
Ġro b
Ġtyp es
Ġpl atform
Ġqu arter
R A
ĠT ime
Ġmay be
ran ded
ĠC r
Ġves ti
Ġmicros cale
9 5
Ġutil ity
ĠTB I
Ġunderstanding s
p re
Ġepid erm
Ġmov ing
b rid
Ġl if
Ġgo ld
Ġcon duction
Ġs om
Ġol factory
Ġpat ients
Ġtr uth
ĠK e
ur ance
Ġcovari ate
ant ly
m ar
Ġgon ad
Ġchar ge
er ge
Ġneph rectomy
ĠG reat
Ġce le
Ġemit ted
---------------- ----------------
Ġdiscer n
Ġro ck
ro id
an cy
Ġcred it
a ud
odiagn osis
B y
Ð½Ñĭ Ð¼
F ES
ĠE very
ĠB ovine
Ġhi PSC
Ġmov ed
el ian
Ġk allikrein
Ġrec to
ing er
ĠUl tra
rib ution
Ġcoch lea
Ġn ames
ĠL RR
Ġstra ight
Ġpolymorph onuclear
Ġsub dural
ĠHe alth
ĠW KY
ĠW ell
eth oprim
Ġfe ature
Ġr ule
Ġsc he
Ġseg reg
in ated
ĠMich ael
de f
ber g
phosph olipid
4 1
ĠWil lebrand
il ed
on in
b and
ospit als
ĠS accharomyces
Ġcl ick
Ġp mol
ĠAng el
ĠC Cl
on ents
Ġcontin ence
Â Ń
Ġinsem ination
ĠI raq
ĠS aturday
Ġbeha ves
Ġa ware
ĠR GC
p art
Ġastro cytes
glyc ans
Ġpat tern
Ġref lux
O W
Ġest radiol
ĠL et
Ġimmunore activity
Ġgr ad
olin ergic
ĠIntrig uingly
ign ed
Ġassoci ated
ub ation
Ġst yle
n o
Ġcarbon yl
i ation
Ġexplain ed
a ith
Ġgu inea
il ies
Ġst ories
ur ation
rom as
Ġindividual s
Ġdet ected
ĠâĢ ¦
eu tic
m iss
Ġsc re
ĠAss oci
Ġdec el
ish ing
Ġpneum ococcal
åŁ º
ab y
Ġprol apse
Ġsum mer
Ġregard s
ĠÎ ¸
ĠB en
induc er
Ġ3 2
Ġpig ments
hydroxyp ropyl
Ġar ch
Ġra d
Ġana plastic
sc rew
ut y
Ġguid elines
N Ps
Ġscat ter
ĠMT L
ĠTex as
Ġflex or
Ġcram ps
h ol
B Z
Ġfull y
ĠMS SA
Ġm ill
Ġhydrox ymethyl
Ġfollow ed
Ġrang ed
ÃŃ an
ĠB ill
Ġex hibit
ĠHS Ps
ĠInd ian
Ġsoy beans
ĠSec ret
Ġnom inally
ĠB el
ĠChrom atographic
od iphenyl
ĠFeb ruary
Ð°ÑĨÐ¸ Ð¾Ð½
ĠP ae
Ġjob s
v ac
ĠD DI
Pro te
Ġseem ed
Ġdiff raction
ĠPPAR gamma
Ġform a
ĠHOX B
ĠGo vern
abor atory
ĠAnt arc
) Â°,
i pped
tr onic
D SP
Ġreal ity
MM N
Ġl ines
ĠOste osarcoma
Ġp ark
haem oglobin
Ġmeas ure
Ġindividual ize
ĠO ur
Ġy ears
I M
Ġsurg ery
Ġbro ther
ros pective
Ġgrow ing
Ġchol inesterase
Ġb an
Ġimmun os
OS PER
Ġest im
itone al
Ġsubstitu ent
Ġc ry
ĠS chool
Ġme chan
ĠO F
ĠWind ows
Ġr ates
CH I
ĠO h
9 36
Ġpos itive
ic ap
Ġcult ure
Ġmon ths
ist ics
is tr
ic a
iel d
Ġh ar
y a
u vant
ite ly
Ġhypergly cemia
i pp
Ġm ap
en cies
ĠWill iam
I I
ak ers
5 6
ĠM art
ĠR em
S NR
Ġal tern
ĠP FA
it ude
ĠGynec ology
Ġco ach
ĠAnthrop ometric
row d
de gradation
D on
Ġhyper mutation
Ġk ids
ĠAS E
Ġj ournal
åĲ Ħ
Ġcor por
ĠD GF
Ġf alse
Ġtrache a
Ġ5 27
Ġwe b
adap tive
Ġdesm osomes
Ġsle ep
or atory
Ġacc umbens
Ġgran dm
Ġcont ain
Ġreg istry
Ġwash out
Ġpal ae
Ġst o
ĠCr iterion
Ġb ed
ÃŃ f
iver se
Ã¼ k
ĠR ich
ĠPhyl l
ĠCh inese
Q A
Ġendoscop ist
Ġp un
Ġmo tion
ĠØ§ÙĦØ £
Ġazt reonam
Ġme ant
Ġnit ros
ref ring
k nown
Ġhist omorph
Ġlatit ude
Ġnot ice
MI Cs
Ġbo osted
Ġfavor ite
c rystal
har monic
a ven
phys ician
Ġcond ition
ĠTRUN CATED
Ġsqu ir
Ġpur pose
oid es
iterpen oid
) )
ĠE hr
Ġorgan ization
ĠI II
Ġran itidine
Ġchall eng
Ġmac roph
Ġlymph oblast
Ġman ufact
Ġod ors
Ġsus p
Ġair c
ĠA c
Ġmum ps
Ġcrit ic
Ġa Ã±os
un es
ac rom
uc lear
Ġm er
vent ion
Ġ8 0
Ġm ist
ĠU s
ĠA beta
ĠT or
Ġv imentin
htt p
ĠÏ Ģ
ol f
vent ful
Ġ> /=
Ġlarg er
ĠMid dle
Ġneuro ticism
Ġadv ant
ĠPhys ician
Ġrese ar
or rh
ĠHepat ocellular
Ġact ions
ĠL AM
m l
MP a
Ġke pt
Ġam ounted
Ġa im
answ ered
, '
Ġse lec
c ol
ĠkV p
Ġbenef its
AB S
if ying
ĠSim ulated
Ġact ual
Ġre rio
ĠIntern ational
Ġter tiary
Ġveh icle
Ġcomplic ated
Ġch ief
Ġattem pt
Ġeff orts
ĠLe ague
lec tive
ĠM ost
ĠBal timore
Ġwa it
Ġzyg otes
Ġad ult
Ð¸ Ð¸
Ġimp rac
Ġover all
I CD
Ġspe ech
Ġdestro y
Ġhigh ly
os iti
Ġfem ale
om n
Ġer ror
Ġeffect ive
5 4
Ġenc our
w ell
re pt
Ġfail ed
unc ed
plic ation
Ġcons erv
az ole
Ġdec om
Ġprogram s
Ġaff ects
amin ic
Ġt rou
er ated
ĠV UR
Ġa head
fr active
5 00
Ġprolif erated
vertis ement
I P
ĠF ound
p ir
Ġdef ibrill
Ġ %
oglob ulins
Ġcr ime
and er
Ġloc ation
Ð¸Ð ¹
ĠI ran
Ġman nit
Ġbehav ior
Ġcontinu ation
az ing
r atio
Ġr are
ĠSim plified
Ġem b
Ġenrich ing
Ġca used
Ġnavig ated
Ġsh ip
Ġber yllium
Ġact ive
Ġcos timulatory
Ġtrogl itazone
Ġcont ribut
ag lob
ur sed
Ġg reen
tro ke
Ġtrans diagnostic
Ġac qu
Ġthaw ing
Ġref lect
gl ut
og old
ven ue
ocarcin oma
C x
Ġf irm
Ġattenu ated
Ġplas tics
Ġb irth
Ġcont rad
ĠAV F
] .
Ġste atosis
ro gesterone
Ġclear ly
æ ŀ
ĠGer iatric
Ġem ot
Ġex pressive
Ġag ency
Ġmal function
ri age
ĠCT A
Ġplant arum
Ġmem ory
ĠGP x
9 8
Ġmal es
Ġcephal ic
S A
y ears
ĠSe e
Ġoutc omes
ac ing
Ġpr ac
ool ig
C C
Ġneuros ci
Ġbig gest
m icrobial
Ġr ap
Ġprovo ke
Ġpr udent
Ġbas ic
ed ness
Ġradiolab elled
Ġb and
Ġim ipramine
ÑĥÐ»ÑĮÑĤ Ð°ÑĤ
e at
Ġconj ug
ĠIn nov
Ġsus pect
Ġcoup led
ĠAd ap
Ġbull ous
ĠM ac
opath ological
Ġden aturing
Ġ9 0
Ġsmo oth
NO VA
ĠP elvic
m ark
Ġdi ver
epit helial
ist an
Ġsc anning
Ġsp read
Ġheterogene ity
am s
ic in
k i
Ġtub erculosis
as y
Ġt innitus
ra v
x ine
äº İ
ĠR ober
inf ectious
ose lectively
Ġdemon str
ĠBM SCs
ĠWM H
Ġ5 33
r ated
Ġconve y
emb edding
Ġabs olute
tim ulatory
Ġprof itability
Ġpl aces
Ġtren ds
Ġmes encephalon
Ġim pl
ĠNeu roc
ibr ary
ĠPF P
Ġc ards
occup ying
Ġdest roy
- ]
Ġv irt
ha emat
ve re
ĠÑĥ ÑĢÐ¾Ð²
Ġapp eared
ar di
Ġpeg interferon
y an
ere ll
p oint
ĠU FT
Ġbe g
Ġschiz otypy
Ġtem per
Ġlandsc ape
8 41
s pe
C HR
ant ed
ĠH SE
ear s
Ġevid ent
Ġfil trates
ĠD irect
Ġbull ae
Ġl ength
Ġdies trus
Ġbl og
ĠM ounting
am b
meth ionyl
Ġint eg
Ġmetam aterial
Ġres ources
ac c
if ul
ro pl
Ġsp ot
Ġfor ced
Ġthous ands
ĠMin ister
Ġqu al
ĠF rench
Ġlay er
at ically
tit ude
Ġgener ally
virus es
Ġdr ink
Ġcyt otox
Ġion ization
Ġth us
I L
od es
Ġendothel ial
Ġappro pri
Ġsus cepti
ĠRe ad
Ġgangl ia
Ġwh om
Ġpla ques
Ġpredict ability
Ġey e
Ġcontrol ling
Ġcol lege
Ġthor ac
Ġ4 5
Ġcyt os
Ġseg mental
ire ction
Ġser vices
Ġens ure
Ġapp arent
id ers
Ġrelig ious
Ġmin or
ol ic
Ġt ro
Ġcom mon
ĠWh y
ati le
rib ute
Ġcontr action
m et
Ġprim ary
Ġdevelop ed
Ġdiagn os
Ġpe ace
Ġsk in
W GS
st e
Ġf erm
av a
othe rap
st abilizing
Ġbl ue
ĠAS K
Ġfam ilies
Ġesophag ogastric
Ġ ir
Ġapp ly
or ding
Ġin form
Ġblot ting
ĠSm ith
C T
Ð¾Ð» Ð¾Ð³
i i
z inc
Ġlim it
ĠC ultured
Ġres ist
omic roscopy
........ ........
Ġd ose
Ġat tracting
um n
Ġmater nally
Ġconf lic
ĠFrancis co
Ġtw e
ud d
ĠT om
Ġl iter
Ġglycos ides
qu e
Ġsup er
b on
Ġha ir
ĠS uccessful
Ġevent ually
Ġpolymorph isms
abil istic
Ġp us
K D
Ġincontin ence
o tional
Ġhelp ed
Ġm urine
t DNA
Ġsw abs
ds DNA
Ġag g
lu ores
rept ococcus
Ġintra hepatic
psych otic
or ney
Ġvari ance
Se q
ĠApp le
Ġf it
ĠS ur
Ġpre m
Ġs ales
Ġregion al
Ġsecond s
oly tic
Ġstreng th
Ġb up
Ġfeel ing
Ġenzym es
Ġemb olism
¿ ½
Ġt our
Ġknow s
o om
Ġex erc
Ġsom ew
ï ¿½
> >
Ġsp okes
Ġide as
Ġreg ist
so ft
ĠD el
Ġperp etr
ĠP C
Ġdec oction
Ġpro pos
oin terstitial
Ġlaun ch
atis fied
Ġbott om
s igma
T H
ĠP lease
Ġre ques
v est
it z
ys ts
ĠIn ter
Ġhom ologous
M PA
Ġsc ript
Ġdi versity
c ystic
Ġr at
ĠR oman
lim bs
ar ning
qu i
ĠD MS
Ġ il
Ġaut obiographical
ĠJ er
Ġpoly tetrafluoroethylene
ĠA re
ĠPre mature
Ġwh atever
Ġherbiv ore
PD C
ok en
ĠF US
ĠBat tery
acc uracy
ci ence
Ġre structuring
uret te
Ġmod e
ĠD IP
Ġag ree
Ġmar cescens
Ġs ources
C ronbach
Ġinit ial
Ġrest rict
Ġwond er
us ion
## ##
ĠS il
vil le
Ġsomat osensory
Ġb urn
Ġintram olecular
t w
Ġeff luent
as ion
Ġout growth
ĠÂ £
Ġv or
Ġn or
ĠBon ferroni
u ing
Ġs atis
Ġnon selective
Ġre ached
Ġmor b
ip ot
Ġalkyl ating
Ġs un
arc oma
Ġacc id
pro line
Ġc ateg
ĠMAP K
ati d
Ġis otype
ig ration
oc occ
ĠWOR DS
omy c
Ġbacteri ological
Ġc ook
ĠS LE
c adherin
Ġbifurc ation
Ġmit ophagy
Ġprom ot
qu ir
Ġm ale
ro gen
Ġcl imate
Ġobser v
Ġf ix
Ġalleg ed
U R
all ed
Ġglauc oma
Ġim ages
C ont
ot a
Ġschool s
i os
Ġd rop
Ġst ream
ĠM o
op rec
Ġprevious ly
im etry
al ing
valu ation
Ġp et
Ġdou ble
Ġ( @
ann el
Ġdef ault
Ġreconstruc ted
t ies
Ġf oci
Ġr ank
ĠD ec
control led
ĠCoun cil
Ġweap on
Ġst ock
Ġcrustace an
Ġanal y
Ġbiofil ms
Ġmed aka
ĠSt r
ep id
Ġconc aten
Ġpict ure
a OR
ĠPol ice
f erence
Ġcent ury
Ġproduc ing
Ġcitiz ens
ĠIncreas ing
Ġon to
Ġfollic les
Ġexp and
Ġrevascular ization
Ġhe ro
Ġfe eling
ĠS ol
Ġw ild
Ġscaven ging
Ġupd ate
Ġcustom ers
r ont
ĠP LE
d ef
com pliant
Ġl ik
Ġconnected ness
Ġcrim inal
Ġparal yzed
ĠChrist ian
ang io
S P
MA G
7 6
omann an
Ġle aving
min or
Ġother wise
Ġprof ib
ĠD ist
Ġpur ification
LI M
Ġbas is
Ġrequ esting
5 2
Ġperce iving
5 3
ic ip
ten sive
ĠB er
Ġang i
Ġrecomm end
istingu ishable
Ġfl oor
Ġinter acted
Ġc rowd
Ġthromb us
ol es
Ġ7 0
Ġcent ral
ĠE v
Ġd ream
Ġdown load
ĠT ypical
Ġconf ir
ĠA MS
translation ally
ĠTh om
ĠC PE
a A
Ġwind ow
ST I
Ġkinder garten
Ġhapp ens
Ġfluctu ations
ĠMon oclonal
Ġepilept ogenesis
Ġun it
Ġhel d
SC A
odon tics
Ġt end
Ġerythro cytes
ĠAdj uvant
E ST
Ġs pl
Ġs ter
pre valence
Ġar temisinin
Ġbec omes
Ġmultim orbidity
Ġfight ing
Ġvas omotor
Ġpred ict
Ġeros ions
Ġposterior ly
ĠP ress
Ġst yrene
paras ite
ĠP ower
S CT
ĠInf rared
Ġhe avy
ĠFas L
tis ation
ak ed
ĠÑĢ Ð°Ð·
ĠÐ° Ð½
Ġf an
Ġinges ted
Ġmicro angi
or ter
Ġhyper responsiveness
Ġpe ti
ate gy
ils on
Ġanat om
B A
iz es
Ġcorne al
Ġsp end
Ġelec t
H ere
Ġbios ynthesis
Ġcompar ator
Ġ200 7
ĠTu key
Ġad op
Ġherb icides
ĠH am
Ġdimension ality
Ġfoot ball
ĠER beta
ĠP ort
i NOS
od ay
5 1
amp ions
Ġtrans fer
h t
Ġ3 8
Ġaven ue
ter m
Ġcor d
Ġmy oglobin
ac ity
Ġb ur
] ,
tern al
oh ist
r ig
Ġs per
b ut
Ġextrac ellular
Ġdescri ption
Ġthere fore
ĠL PS
ĠB ecause
Ġdi rec
res p
re y
Ġm ission
S ome
Ġnot ed
Ġass um
Ġdise ase
ros cler
Ġed it
Ġprog ress
r d
ĠB rown
oc al
Ġpat ella
Ġadd ing
R II
Ġra ised
ser in
ĠAn y
t et
eff iciency
Ġt ick
Ġlab eled
Ġenal april
Ġsee ing
ustr y
G lu
C SA
ĠPe ople
Ġsystematic ally
Z n
Ġagre ement
Ġund ere
Ġser ver
Ġw at
pon e
Ġdeb ate
ĠInf ections
Ġsupp osed
il ing
Ġlarg est
Ġhypoth yroidism
Ġsuccess ful
Ġpel vis
ĠP ri
he si
ĠDemocr atic
Ġj ump
ĠSyri a
Ġown ers
Ġoff ers
Ġshoot ing
Ġeff ic
per idin
se y
prov oked
Ġha ven
destruc tive
ver se
Ġmask s
te red
ĠL ight
im al
ĠObser v
ĠB ig
ĠLact obacillus
vit real
Ġdef end
ĠG CA
Ġbe at
ind o
Ġrecord s
diab etics
% )
rin one
Ġsc en
tic al
SC H
Ġemploy ees
Ġtoc ilizumab
Ġdev ices
he m
Ġcom mer
ĠM ex
Ġbenef it
Ġdestruc tion
ĠPro f
Ġil leg
ipro floxacin
Ġsur face
nit ros
ĠAl so
Ġperf ect
Ġh arm
raz ol
ing ly
si x
w ide
Ġnur sing
ĠA lex
Ġf ron
Ġsh ut
ĠC ur
ĠSS c
Ġl ose
p m
Ġend onuclease
Ġchall enge
uber tal
se mb
Ġinfl amed
Ġst ation
Ġint elligence
link ing
Ġacc ur
Ġprost hesis
ĠFl or
Ġsurf actant
Ġrequ ires
end ocrine
ĠM al
b um
Ġsuic ide
Ġh ospital
Ġsp irit
Ġoff ered
Ġprodu ce
ĠComm un
Ġcreat ing
Ġcr is
s pect
Ġend ed
Ġd aily
Ġmes oderm
Ġvot ers
r ata
land s
Ġperfor ated
i as
i h
on a
ĠT DS
Ġsm art
orepine phrine
ĠM CE
ĠOff ice
Ġdi oxide
Ġc ations
Ġund amaged
ĠL ord
Ġc imetidine
Ġreplic ase
ri al
Ġthal ass
ĠIntern et
Ġcirc um
Ġli ves
Ġextreme ly
Ġte ams
' .
ĠP BM
Ġopin ion
ĠM il
Ġg ain
B S
ĠF in
y p
Ġuse ful
Ġbud get
Ġcom fort
hex yl
is f
Ġad ds
Ġback ground
Ġdecarboxyl ase
el ine
A MP
Ġoverlo oked
Ġep isode
Ġqu es
Ġantim icrobial
Ġen emy
Ġdispl ayed
Ġtri al
Ġestab lish
d ate
Ġremain ed
ĠC ap
ult aneous
Ġcontin ues
ob acter
Ġshow ing
ĠUn ion
w ith
opl ankton
Ġpost ed
Ġhis tor
ĠSy stem
Ġe at
ri an
Ġr ise
ĠGerman y
il s
Ġsign ed
Ġv ill
Ġgal ectin
Ġgr and
m ortem
Ġres ins
m or
Ġaccom mod
Ġcarcin oid
ĠEng land
ari an
Ġproject s
ĠÐ ½
um ber
Ġn orepinephrine
Ġconf erence
z a
Ġrespons ible
ĠSim ultaneous
ĠAr ab
Ġlearn ed
âĢĶ âĢĶ
Ġin gredi
i pping
ĠGe orge
O C
ĠGuang dong
Ġreturn ed
Ġrec ognition
ĠAustral ia
on omic
Ġdu od
Ġb rief
Ġconn ected
Q u
ĠMul ti
Ġax ial
Ġbr and
Ġerr ors
Ġnon invasive
ist al
ill ing
ram atic
truct ural
ĠOd ds
ab led
t umor
Ġhig hest
Ġpath ogenic
Ġtr ain
Ġclus ters
ĠComm ission
Ġcaus ing
wh ile
Ġn om
Ġsim ilarities
cept ion
Ġm ut
ĠBl ue
Ġinc ident
Ġun ambiguous
v ant
Ġs omatic
ist in
8 6
Ġm agn
Ġcri tically
ĠTransi ent
ĠI D
and ard
Ġsur prising
Ġn uclear
Ġdeline ated
7 4
ither to
ĠL ike
åĽ ł
ĠR E
Ġster ic
ĠM icro
Ġlys ine
ol lic
l i
Ġcontex ts
ĠH SA
m ail
ati s
Ġcharg es
ol isthesis
8 9
Ġbrom ocriptine
Ġad just
HN SCC
ad o
ogen omics
Ġear th
Ġch olinergic
Ġap athy
N A
si veness
ensi tization
Ġvap our
Ġpr ices
Ġan emic
P A
Ġelast in
hes ise
Ġd raft
ĠPerc utaneous
Ġrun s
dise ase
Ġcandid ate
oxid ative
ens es
Ġmanag ement
Ġexce eding
ĠPh il
ocor tical
ĠM iss
Ġte ach
Ġextension s
g ram
ĠTarget ing
lo ok
Ġunderstand ing
Ġconduc t
Ġanch orage
Ġspik ing
a it
ĠAt rial
ic ago
Ġsub cutaneous
A dd
ĠE p
sec ut
Ġsw it
Ġsepar ate
Ġacc oun
Ġinst ance
o virus
Ġe th
ĠEn d
Ġun less
ĠH LA
**** ****
Ġchan ged
Ġequip ped
ĠF ore
ĠEff ective
in ate
Ġcruc iate
ĠProgn ostic
Ġoper ations
Ġgir ls
Ġplas tid
S p
ock out
Ġf aith
Ġsol vents
Ġphot othermal
g ar
ar ach
Ġanti thrombin
ĠCh urch
Ġantine oplastic
ron ic
A NP
Ġconf ig
os ure
c omp
Ġactiv ities
ar rh
Ġtrad itional
read mill
Ġ3 6
ĠP erc
Ġd irection
Ġmach ine
Ġsur round
Ġp ush
un ction
Ġm astic
ĠE U
Ġeas ier
t rained
Ġarg ument
Ġob li
G B
Ġjour nal
Ġvascular ization
Ġm icro
ĠP SC
Ġsp ending
ĠEl igible
iz ations
Ġthe ory
ad ow
Ġmolec ule
Ġcall ing
Ġneuro vascular
ĠL ast
ĠÎ¼ mol
Ġd er
Ġins ignificant
Ġinflu ence
pres sed
Ġcomm it
Ġst rain
Ġph oto
Ġun c
ist ry
g n
ast e
o red
ack s
Ġdis p
lig and
ad y
Ġnos ocomial
d o
Ġpredom inance
ĠG ood
Ġsed ation
ĠTI MP
Ġ `
ER K
Ġcouns elling
n ected
Ġw ish
ther mal
Ġreve aled
SA RS
Ġend ocytic
Âł Âł
di p
l ig
Ġpig e
Ġen force
ĠComm ittee
ator ia
Ġche m
renz epine
Ġmil es
ĠControver sy
Ġinterest ed
Ġhyperprolactin emia
ud il
Ġsol ution
he sion
Ġpoly pectomy
Ġradi opharmaceutical
ic y
NA HL
Ġlig ature
orn is
in ct
Ġc rest
empir ical
Ġ- >
ĠP MA
ĠD et
Ġca ve
Ġrem oved
Ġmultic enter
Ġcomp ar
e ah
Ġpl ant
ĠS ince
Ġachie ve
Ġadvant age
Ġslight ly
b ing
Ġpl aced
u nder
201 5
ĠM ad
o tics
Ġt im
Ġaut oradi
os es
Ġc ru
ĠR ock
Ġmost ly
Ġneg ative
Ġset ting
Ġprodu ced
Ġm ur
Ġconnect ion
Ġth iaz
ĠM er
Ġheter ochrom
Ġdri ver
is omerase
Ġexecut ive
GF P
valu es
Ġass ault
Ġgland ular
Ġb orn
amin ated
ĠmGlu R
ĠV er
unc ture
t ained
Ġstruct ure
Ġredu ce
ici ent
Ġdec ades
Ġd ed
u ke
Ġthromb oxane
ĠM any
ĠJoh n
idd en
ĠIn tracellular
Ġle ague
Ġpy rophosph
S e
mod ulated
Ġjo in
Ġlex ical
Ġdis co
tigm atism
Ġves ico
Ġd ie
am ph
c ks
hyper tension
act ions
o C
Ġass ess
ag n
Ġgo als
our s
acy cl
I R
Ġsen ior
Ġvari ety
ill er
m od
ip ment
Ġcons ecutive
oc ol
Ġro ut
u y
Ġpred om
ĠQ ue
Ġreduc ing
Ġnoncom pliance
Ġpart ies
Ġcarb am
ir gin
Ġnif edipine
Ġle arning
it able
Ġstre et
Ġcamer a
Ġun bound
A pp
Ġvi rologic
Ġsk ills
l ives
b re
ĠInf ant
c ious
Ġsulf hydryl
Ġcele br
Ġmicrom olar
ĠFr anc
is econd
Ġexist ing
Ġre habil
Ġwill ing
Ġst abil
l or
Ġ id
ĠSp ace
Ġcrit ical
ĠCigaret te
ĠL a
ortun ately
Ġinc ision
Ġser ve
yn ec
Ġc old
Ġspec ies
T S
Ġres earch
Ġanim als
ĠS ignificant
ĠB ay
Ġold er
Ġo sm
ĠU nder
est ic
ĠT re
Ġte acher
comp ulsive
Ġpre fer
Ġcath ode
v is
Ġth read
Ġcon trac
ĠM att
tr yptamine
Ġmanag er
tes ts
ãĥ »
Ġprofess ional
ĠV ol
Ġnot es
gluc uron
The se
Ġeosin ophilic
Ġeyel id
ul a
Ġmicro d
Ġent eral
Ġf resh
Ġbiom aterials
Ġubiquit ination
ent ed
ĠM MP
Ġpi per
ur ning
u zz
ec al
Ġanthrop ogenic
ed y
clus ion
ĠR el
Ġdoub t
E O
Ġopen ed
le ucine
ĠB it
ç ©
Ġinter relations
Ad vertisement
H G
oper fusion
Ġgu ess
Ġfist ulas
stud ied
ĠU N
par ing
Ġse qu
Ġsurf actants
Ġremn ants
Ġexpl ain
Ġpro thrombin
ĠSB RT
ott en
cep ti
ne o
Ġatt ract
Ġcalc ium
Ġconv ulsions
ak s
Ġcontrib ute
Ġd rag
Ġstr ing
Ġgon ads
Ġcont ext
Ġmis oprostol
Ġscler oderma
oss ible
ir rh
ĠRepublic ans
Ñĥ Ñĩ
Ġsol id
Ġc ities
Ġask ing
Ġr andom
Ġneuro behavioral
u ps
Ġsurf ace
ur ies
ar ant
comp uted
dd en
ment e
g l
ĠD EGs
ĠFlor ida
Ġdep end
ĠSc ott
Ġnat ural
Ġ3 3
Ġi T
ic on
Ġmention ed
Ġ2 000
Ġclaim ed
Ġdefin itely
en erge
ul f
Ġinverteb rates
Ġc ore
vaccin ated
Ġopen ing
ÐµÐ½ Ð¸Ðµ
ĠCon st
ĠS ulf
wh ich
art um
ĠT ra
Ġaccid ents
A G
7 2
de hy
Ġbelie ved
ad a
Ġ4 8
c arb
ĠSec urity
yr ight
Ġflav us
ĠP et
S OC
ĠL ou
Ġpi oglitazone
Ġhold ing
b asal
prim ed
======== ========
Ġres erves
Ġpri vi
Ġ ice
Ġox imetry
Ġend otox
Ġb row
ĠEcon omic
Ġauthor ities
Ġsym biotic
N Cs
h ost
Ġneurop eptide
Ġdegra ding
Ġcla udication
w ord
n als
Ġorigin ate
Ġdel t
conv ulsive
Ġsc ore
Ġconj unctiv
Ġgl ab
Ġbaro reflex
ĠDPP H
ĠD iv
Ġeff icacy
Ġasc orb
ĠS emi
Ġconvention ally
Ġmet oprolol
Ġcell s
Ġcyclospor in
ex amin
ent gen
Ġpseud op
Ġtrans l
elec oxib
it rop
Ġneigh bor
ĠF LT
Ġbr ucei
Ġrem ove
Ġag reed
Ġpall adium
Ġst ools
u ct
Ġfibr illary
ĠN ox
Ġdist rict
ĠCI S
ĠA ccording
HD AC
Ġwor se
ati les
Ġconcern s
Ġperen nial
Ġpresident ial
Ġca pecitabine
Ġpolic ies
Ġelect ros
ĠH all
ĠAGE s
7 3
oc tion
Ġh us
em ission
A Y
Ġarter itis
Ġ200 6
ĠM OF
ĠJ ud
Ġindepend ent
Ġthromb oprophylaxis
ĠJust ice
Ġcatar rh
ili ar
ĠAR B
pr int
Ġh osts
Ġspectrophot ometer
igh ter
M LC
Ġprotect ion
Ġreson ant
ĠL uciferase
z en
er on
is oquin
Ġsu dden
ĠK inetic
Ġinter media
h ouse
Ġhyaluron idase
ĠJ es
Ġnanopartic le
Ġe u
P R
ĠAn d
de pressive
ĠIn f
ĠC ART
Ġb ul
Ġ _
ĠServ ice
ĠP R
orb idity
Ġstr ategy
Ġv es
ff ect
Ġgirl s
Ġmiss ing
oy al
Ġaber rant
ĠTe am
IF N
ul ated
ĠIg A
ĠUtil ization
Ġd at
at urated
Ġtrans glutaminase
Ġpolit ics
CAT ED
Ġdef erens
ab or
AB STRACT
ĠM PV
A ccording
ĠTR UN
Ġspe ll
Ġg raph
ort hern
T C
A b
Ġlab or
Ġnan oc
is her
Ġk ick
ĠQ oL
ĠiT unes
Ġstep s
pos es
Ġsmall er
E n
ber t
op ar
Ġro ll
Ġre bleeding
Ġresear chers
med icated
Ġcl osed
Ġlam ellae
Ġtrans port
ĠR v
Ġlaw y
roscop ic
4 90
________ ________
ĠCh icago
Ġas pect
Ġn one
Ġion ic
Ġmar riage
Ġmultivari able
9 6
Ġn erves
Ġe lements
os us
ĠF re
ĠS al
ox azole
Ġd ram
ĠS econd
F C
t op
Ġcycl in
e qu
Ġhemisp here
Ġhe aring
Ġcollec t
Ġsupport ed
Ġalk al
Ġtest ing
co hol
Ġmass ive
Ġst ick
Ġgu ard
is co
Ġunit ary
ph one
F rom
How ever
Ġb order
Ġcop y
Ġresponsi veness
ograph y
Ġperoxid ase
l ist
Ġscaff old
7 1
Ġown er
cl ass
ru it
Ġcis platin
r ate
ĠO nce
Ġdig ital
Ġt ask
ĠH b
ER S
Ġcomp l
Ġinc red
t es
+ +
ĠFr ance
is ser
Ġb reat
Ġemulsion s
ow l
Ġanaphyl axis
Ġiss ued
Ġsp hen
ĠW estern
itr ite
Ġdet ect
avour able
Ġpart ners
Ġstatis tically
Ġpreca utions
Ġsh ared
ogra ft
pre pared
ĠC all
Ġse ek
Ġinhibit ing
ĠCarb on
Ġcan cer
ĠAs sess
ont an
ĠAK R
ac he
W allis
ĠLU TS
rib e
Ġmism atched
Ġexpl ained
ĠMe V
Ġhe at
ĠFT D
{ "
Ġabs orption
NP Y
Ġinvest ment
Ġjus tification
ĠB ook
Ġw ood
Ġtool s
ĠAl though
Ġbelie f
Ġcris is
cer ol
Ġg e
ĠM P
Ġinvol vement
Ġoper ation
Ġac t
ty pe
c ents
~ ~
g a
Ġcont ains
Ġeth yl
ant a
Ġexp ress
Ġhypog onad
ĠG roup
Ġcalc ineurin
ĠJ ournal
k a
Ġam b
Ġc iprofloxacin
ĠUS A
Ġdi electric
Ġfind ing
Ġfund ing
h ow
Ġxen ograft
Ġestab lished
ĠP ediatric
Ġhome obox
ide os
id ne
ĠPh osph
ĠChar lson
Ġdeg ree
ĠPhosph orylation
Ġdanger ous
Ġmi R
ĠFe eding
ang ing
tiv ari
Ġanaly te
ĠNAD P
Ġfre edom
Ġglomerul onephritis
ut ational
Ġunderpinning s
pp ort
ĠE CT
CR S
ult ation
out hern
Ġcon dyl
ĠWil ms
Ġch urch
d U
è ½
Ġc atch
di ver
ĠTw o
bin afine
Ġpres ence
ĠGu ard
Ġs ensi
U p
Ġauthor ity
val erate
ĠPro ject
Ġdys rhythm
Ġbut ton
Ġradi ography
des h
Ġcon sequ
Ġe ut
ĠPhyt ophthora
Ġval id
Ġimmunomod ulatory
Ġwe ak
Ġstart s
Ġproduc t
Ġref erence
ĠM em
" )
Ġdent ate
U N
a und
or age
Ġdich ro
ĠO pen
Ġprem en
Ġcol lection
Ġthal amic
y m
l oxacin
g ency
f MRI
Ġbeaut iful
Ġno tice
ro s
NA C
Ġtell s
Ġdiab etics
Ġwa iting
ĠH PA
n el
Ġq RT
Ġprov iding
Ñ Ī
ĠDemocr ats
ash ing
Ġd aughter
Ġappendic itis
Ġm aster
ap onic
Ġpur poses
ĠJapan ese
Ġle uc
Ġequ al
b rain
Ġpharmaceu tical
Ġturn s
ich ia
Ġquantif ication
Ġdoc uments
Ġfibrin olytic
Ġwatch ing
Ġduod en
Ġfu rosemide
R es
Ġr an
Ġamyl ase
201 4
low ering
Ġre ject
Ð¾ Ñģ
ĠKore a
Ġect oderm
Ġvictim s
Le vel
ĠAMP K
ere nces
ĠStim uli
Ġw itness
ĠHen le
Ġ3 4
Ġintr athecal
Ġre form
o cele
com ing
Ġreg istries
Ġocc up
Ġc aught
om at
Ġtra ffic
ad ing
Ġmod els
ĠBR CA
ar io
olum e
Ġserv ed
Ġb atter
u ate
ĠSecret ary
sensi tivity
Ġagre ed
y tic
Ġtr uly
yn am
inter pre
ĠR et
Ð¸ Ð»
Ġun its
ath ione
ĠPC Bs
ĠRes earch
ĠT wenty
h and
oun ts
az ine
Ġhip pocamp
Ġelimin ated
ĠM ike
Ġphysi ology
Ġcorticoster oids
Ġvar iety
Ġaccel erated
struct ured
ot al
yn aptic
Ġcorrespon d
Ġam azing
Ġcytok ines
Ġradi al
Ġc ada
Ġconfir med
Ġentire ly
Ġpurch ase
Ġangi oplasty
Ġe lement
Ġcomplic ating
Ġc ash
ĠST N
Ġdeter mine
si e
D e
AT CC
Ġc ars
CE A
ĠA PR
ĠW all
ĠI FA
â ĸ
ost riatal
Ġphosphor ib
Ġview s
o form
for aminal
Ġdrug s
n utrition
ĠE LF
ain flu
Ġdep artment
pl ated
ĠSt ep
ĠIs sues
u it
Ġfavour ably
Ġ3 9
Ġosteoarth ritic
as ure
Ġhydro x
ĠCl ass
Ġmastic atory
Ġc overed
SV M
ĠB ank
Ġme re
Ġfrac tal
u ana
Ġmult i
Ġm ix
Ġun like
lev ision
ysi ological
Ġsto pped
Ġscre w
Ġs em
ĠG al
ul es
ĠAK I
Ġwe l
ĠJohn son
l a
Ġsk ill
Ġpreoperative ly
Ġbec oming
ri e
n ec
Ġappropri ate
rogen ic
f e
Ġhem isp
ell ow
ĠPro t
it osan
ul ate
+ -
on itis
oc ation
Ġk idne
Ġenab ling
Ġweek end
od ies
Ġarch ival
Ġsit es
Ġlig ases
Ġanim al
ĠT im
Ġsc ale
Ġcharg ed
Ġinst ruct
ill a
Ġmethod s
rom agnetic
Ġc ert
Ġa vian
Ġjud ge
v olume
ĠH el
Ġmob ilization
Ġdoll ars
Ġoccas ion
ĠGluc ose
Ġstand ing
ĠIs olated
Ġc res
ĠS qu
of emoral
ĠI CI
Ġdeb t
Ġtroph oblast
Ġhem o
l iam
Ġser oprevalence
ĠSubjec t
Ġdri ving
ocy cle
ĠS um
ĠFl t
ĠEd ition
Ġsub family
Ġperovsk ites
Ġal bum
and on
I F
ĠU k
6 3
Ġhygi enic
ad er
ĠAdi pose
Ġcommer cial
es h
ĠGovern ment
Ġdisc overed
end orphin
Ġout put
ĠHill ary
Ġat rial
ĠCar ol
Ġ200 5
Ġab use
opo ietic
anc ing
Ġbi le
Ġadi pose
Ġsw itch
ast olic
Ġann ual
T w
Ġinterpre tation
Ġst ated
ag ement
Ġangi ogenic
in ner
ĠPerform ance
Ġdem ocr
Ġdes orption
ĠS ib
Ġres idents
erc ap
Ġwe ev
Ġallow ing
ec tious
Ġfact ors
Ġphosphatidyl inositol
od d
Ġsynap t
Ġf uck
Ġel igibility
em ies
et hel
Ġoccur red
Ġmineral ization
ot i
pec ially
ĠB PA
Ġn orth
Ġremain s
ĠP ublic
Ġinj ury
Ġins urance
C L
oll y
ã Ģ
Ġrepe ated
Ġar ms
ang ed
Ġconst ruction
Ġradi opaque
Ġf le
P U
ic ians
Ġto lu
Ġfor ms
ĠMc C
ant ic
Ġunil amellar
Ġm ental
Ġeclamp sia
p ire
Ġequ ipment
ĠT MC
Ġf ant
Ġdiscuss ion
tom es
Ġregard ing
k in
ar p
Ġch air
og ue
acc umulation
Ġpro ceed
Ġradios urgery
ĠI d
Ġas ynchron
O ur
Ġmur der
M an
Ġ4 9
onstr uct
as p
Ġsupp ly
Ġrecombin ant
Ġin put
Ġextr action
Ġwe alth
Ġde part
liam ent
ĠConcentr ations
Ġpro ced
Ġdivers ification
or ial
Ġsubjec ts
ĠSt at
Ġinj ur
Ġcrop s
ĠN FL
tal ity
ĠM CI
hen s
Ñ Ħ
ĠInst itute
Ġintro ducing
Ġend osulfan
Ġput ting
Ġsput um
Ġtr p
ourn ament
Ġolig os
Z O
et ic
Ġarrhythm ia
d odec
Ġloc ated
ĠM aternal
est in
Ġk id
Ġhypogly cemia
mon t
er ia
lin olenic
r un
Ġre entrant
Ġpr inc
Ġ3 86
Ġ !
omet al
go ing
Ġnan ot
ĠB et
Ġanest hesia
ĠE TB
Ġcl ot
gen erative
Ġox ime
Ġtell ing
Ġex tension
oal veolar
ot rophy
Ġprop osed
ac quired
ĠST ING
i ot
or ry
Ġfund s
g ment
v ital
ĠL ife
ra ight
Ġber berine
Ġb aby
Ġhy stere
Ġattrib utes
ĠB ack
Ġaff ective
Ġall er
Ġsp oke
V EGF
be havi
Im age
Ġanastom osis
Ġdef iciencies
Ġj itter
Ġear n
Ġtit ers
Ġattrac ted
ĠA T
g u
Ġmater nal
Ġex change
Ġext re
ĠL in
at ase
ov ing
Ġsubun it
Ġreplic ative
Ġp air
Ġper fusion
ĠIncreas es
M ore
Ġsimultaneous ly
Ġhydro lytic
az on
Ġpath ogen
Ġarrest ed
Ġhydro thermal
Ġkill ing
c an
ĠC ard
y d
Ġident ified
Ġm obile
Ġthan ks
ony m
ĠF orm
Ġhundred s
ĠCh ris
ĠC at
iatr ician
Ġtre nd
Ġpub ic
h at
Ġequ il
ĠA v
Ġnit rox
em sa
om an
Ġmo un
Ġ< /=
Ġstrept okinase
Ġelect ric
ĠInflamm atory
Ġden osumab
Ġunivari able
ĠW il
Ġmy of
Ġhur dles
ob ot
S E
ib er
Ġst yles
Ġos eltamivir
ĠH NE
O f
ĠL Q
Ġrest aur
omet rical
ot ed
Ġb inder
eck el
Ġtr ig
ĠCon tin
oc ript
S MI
Ġn ine
Q ALY
ĠE rec
Ġb omb
MP V
HR QOL
Wh y
Ġcandid iasis
Ġ Ð¸Ð·
ĠCCA AT
Â ¯
Ġat las
âĢ °
Ġco verage
AR s
cyt hemia
Ġapp eal
Ġcardi omy
resid ue
NH E
ĠRober t
Ġpop l
GP x
ĠCI C
ĠS up
rom onas
Ġn AChRs
or ated
Ġfin ished
Ġdis tention
ĠC PV
Ġre pletion
Ġfl ow
ob le
Ġlymph openia
Ġthromb ospondin
ĠIn jections
Ġdel iver
ozo ite
ceral dehyde
rew s
ĠCl C
Ġcal cul
Ġelec tro
oxic am
M SA
âĪ ŀ
Ġphot os
Ġrele ase
ĠT FA
ĠSI RS
odal ton
Ġph il
Ġques tion
ĠCR C
ĠÐ² Ð¾Ð·
ĠIr respective
ĠOx ytocin
Ġpie ces
Ġmeth icillin
sulf onyl
ou in
Ġtrunc ating
Ġapp re
f os
eng al
ĠA CO
ĠGal ectin
k es
Ġparad igms
ĠAP Cs
Ġr ough
ĠN GF
it um
D o
Ġpart ner
Ġconcern ed
Ġ3 7
ĠG en
iver s
C ol
Ġpro jec
ct ors
Ġpredom inant
P c
Ġ= >
G PI
st ate
Ġsuggest ed
ï ¼
ĠFor ce
C E
arg ing
Ġher self
Ġel imin
Ġascorb ate
ĠPl an
Ġc asp
w orks
ĠAdj usted
o oth
ren cy
ot r
Ġcor ner
Ġhus band
Ġintern et
ĠA ut
ĠE US
em s
os en
ĠAF M
ĠAt l
ĠI MT
g en
Ġimpair s
ĠM PS
Ġbal ance
Ġgrain s
Ġ ubi
6 2
Ġbi ophysical
T rp
Ġsound s
it ney
Ġdi hedral
te xt
IL s
Ġar r
ov es
Ġmill ions
Ġrad io
Ġcas tration
Ġsat isf
on ance
ĠD am
Ġcollagen ase
M r
Ġuns u
G o
Ġtex ts
othiaz ide
S pe
PM N
Ġst apl
Ġcomb at
Ġpro posing
r ant
ĠG ree
Ġf uel
Ġdist ance
Ġtest s
Ġdec re
ĠE r
Ġman aged
omat ous
D S
Ġmicroscop e
Ġt it
ĠÎ ³
Ġmeas ures
Ġfib rosis
ĠL iber
Ġinjur ies
Ġatt end
89 2
as hed
Ġrepro duction
8 48
ĠJ ose
ĠG OS
ĠN ight
CL E
ĠBi ophys
d it
Od ds
çĸ¾ çĹħ
Ġadd ictions
ĠN ov
ofr uct
ĠE nd
so as
Ġem itter
out s
draw ing
Ġgener ation
ĠGro EL
Ġadv oc
Ġdes irability
y th
ine phrine
Ġconvers ation
Ġele g
ĠS ky
)- (
act ive
asc in
ce l
rep eat
ri er
ky o
ĠFr ank
Ġdecid uous
Ġcont entious
Ġg ender
ĠVD AC
Ġcon cent
part ner
Ġcar ried
Ġdis till
and a
Ġpast ures
ĠV irgin
ĠNin eteen
ĠPers istence
Ġarri ved
ĠEryth rocyte
ic ide
Ġn umeric
Ġclar ifies
ad ed
ĠCO M
Ġe uch
Ġfail ure
Ġsection ing
Ġmin imum
le ts
Ġwor st
Ġmetast atic
Ġkeep ing
Ġint ended
Ġcapill aries
Ġilleg al
hep atic
Ġsub cortical
Ġsub sc
Ġambi ent
Ġdetermin ed
Ġoste oarthritis
Ġcurc umin
Ġtri p
Ġpar amet
Y es
Ġra ise
Ġ ~
Ġfeel s
Ġco herence
Ġpack age
ĠJ o
Ġmicrob es
h i
Ġirregular ity
201 6
Ġdim ers
ĠBel gian
re al
Ġchem okines
Ġs port
oxyp eptidase
Ġf ra
Ġper ceptual
ĠV ascular
Ġpenal ty
Ġsy mb
F DA
M e
ocor tex
uck y
cep tions
ĠT ACE
p ret
Ġca vity
yl ed
Ġsm eg
ĠK h
ĠEd it
ĠWe b
em ic
ĠCol or
Ġjust ice
ĠPo lym
I nt
Ġinvari ant
Ġfar m
d yn
ck now
" >
el ess
Ġredu ced
Ġhemorrh agic
Ġ5 00
x x
Ġperme ability
ĠR ad
ĠS NF
ĠW ood
orr haphy
Ġcl in
nit rogen
Ġenumer ated
Ġhy p
OS T
fer tile
il er
Ġcas os
53 7
ur a
Ġsphing osine
Ġ36 8
k ins
or adi
Ġcal v
8 5
Ġimmun ological
Ġchor io
6 1
Ġcoc ulture
ĠThe ir
ati f
Ġec ologically
ĠM ary
Ġr up
Ġtransform ants
Ġs an
Ġno vel
ĠWh o
Ġcap acity
Ġimp ossible
Ġpl ays
Ġmin ister
ij uana
ic ate
ĠS et
Ġf ram
Ġ ing
Ġcommun ities
ĠF BI
it a
Ġb on
Ġstr ateg
Ġinterest s
l ock
g ers
emb ry
m as
Ġdend rites
ĠAN D
Ġn oc
Ġconflic t
Ġrequire ments
Ġap par
Ġs ac
ur c
Ġoper ating
ac in
in i
Ġimplant ation
Ġcompos ed
rel ated
Ġprac tical
Ġcomm itted
Ġrelative ly
Ġs outh
Â¯ Â¯
Ġm unic
Ġaff ord
Ġcolon oscopy
Ġident ity
Ġatten ding
Ġdec isions
Ġacc used
Ġsynth ase
pl ace
st anding
Ġvict ory
Ġsearc hed
Ġinterpre t
o ch
i at
N ame
C om
t ion
E PI
ed s
Ġreplic ating
Ġsee k
Ġsynovi tis
Ġt ight
ĠIm ages
Ġinit i
ĠPV P
Ġhum ans
Ġimp utation
Ġfam iliar
Ġaud ience
Ġintern al
ĠBurk holder
vent ure
Ġs ides
ĠT O
ĠB reast
Ġd im
ox ides
Ġcon clud
de press
ism us
Ġapp oint
Ġchondro cyte
Ġenforce ment
yl ine
ĠJ im
ĠAssoci ation
Ġcircum st
ĠCanad ian
Ðµ ÑĢ
Ġjo ined
Ð½ Ñĭ
Ġdiffere nces
ont ally
ĠL os
Ġcolocal ization
Ġprot est
Ġhams ters
Ġpercenti les
Ġtw ice
in duction
w in
Ġgl ass
Ġdere gulated
ars h
ĠCO P
ĠAr my
osahexa enoic
Ġexp ression
oper itoneum
Ġdec ide
p ical
Ġplan ning
Ġcaroten oids
ococc osis
an ia
ud y
comp uter
Ġhand le
Ġpartic ulate
Ñĥ Ð»
ĠMicro soft
HS V
Ġceft azidime
ĠN or
Ġmin erals
Ġac etaldehyde
Ġmax imum
Ġreplic ation
ra ulic
ĠRe v
Ġpractic es
ÐµÐ ¹
Ġse a
Ġev al
Ġle c
Ġhel ps
re f
Ġb ound
Ġm outh
Ġstand ards
ĠP EG
Ġcl im
perform ance
ĠC amp
Ġdisc overy
Ġad ding
ĠF ox
Ġbi ot
cl es
A u
R V
Ġar my
Ġresour ces
tr us
ĠTe chn
ack ing
x y
Ġconf ocal
S S
Ġm V
ĠOn t
Ġ4 2
ed ema
Ġbu g
ĠUk rain
ĠM ax
ĠJ ones
ĠSh ow
Ġmechan os
l o
ĠTA E
Ġplan et
Ġ7 5
Ġprolifer ations
Ġwin ning
Ġful ly
ĠCit rus
Ġf aster
Ġsour ces
Ġspe ct
Ġscler osis
Ġbro ken
T R
rophyl axis
Ġdef ined
Ġantimal arial
Ġhealth y
Ġcompet ition
htt ps
ĠIs land
ĠS MB
ĠF e
Ġt rophic
pers istent
Ġannoun ce
Ġcon ception
Ġcartil ages
ĠC up
ĠInst ead
Ġres titution
Ġcl ient
Ġposs ibly
se ction
ock et
l ook
pers onal
Ġfin ish
Ġcre w
åı į
Ġres erv
avi en
ĠI MC
Ġed itor
ĠPediatric s
gra vir
Ġh ate
Ġrh amn
Ġalert ness
Ġtherm oc
Ġs ale
Ġnit rates
Ñĥ Ð´
Ġcontro vers
Ġtac tics
Ġs ono
T HP
Ġp ages
ĠDist ress
ĠDe gradation
Ġch it
w ing
ex tracted
ĠK K
Ġnum er
Ġcarb ene
Ġsymmet rically
Ġopp osition
CP C
Ġrip arian
Ġ200 4
ĠL Cs
Ġref uge
Ġabs orb
Ġscler ostin
Ġfl ight
Ġaccoun ted
ĠTF F
Ġap art
Ġreinf or
Ġg i
ĠL at
Ġis lets
ĠC osm
A meric
Ġtele medicine
Ġac ylated
ĠAfric a
Ġcogn ate
Ġapplic ations
ĠPal est
ĠB ur
Ġg ar
ĠSoc ial
Ġup gr
Ġsh ape
Ġspe aking
ans ion
reg ions
a o
Ġpermit ting
ĠS n
specific ity
ĠT GR
Ġwor ry
ĠBrit ain
Ġenanti oselective
P lease
m PFC
rou d
Ġde generated
Ġh un
Ġantigen icity
Ġintrodu ced
Ġhap py
Ġd iet
Ġneuro filament
I nd
T SP
ĠSec ond
Ġfun ctions
ut s
ĠE ach
Ġadhe rent
ĠJe ff
ox ication
Ġst ress
G SH
Ġaccount s
condition ing
Ġgu arant
ĠAn n
ed ia
Ġdip ole
Ġhon est
Ġanti di
Ġt ree
ĠIC F
ĠK F
ĠAfric an
of ib
Ġspi roche
ĠEEG s
ĠB ush
Ġpredic tor
ĠInt ra
epez il
} ,
Ġcortic oster
he ries
Ġs ch
po ints
Ġmon ozygotic
do ub
ĠOn ly
Ġmicrod ilution
prec ipitation
Ġf if
ople gic
ig an
Ġaver ted
Ġexerc ise
ĠEx p
Ġres piratory
Ġscient ists
Ġcobal t
Ġlegisl ation
Ġin ositol
ĠW ork
ĠS pr
Ã Ĥ
ĠH uman
Ġ è
Ġsur vey
Ġr ich
ri p
Ġmain tain
Ġfl o
Ġleaders hip
Ġaden o
st ream
ari atric
pit helial
ĠIslam ic
Ġmid brain
Ġ 01
Ġto ur
ĠCol lege
ob ium
Ġmag ic
on ary
Ġhal operidol
ĠPr ime
Ġwid er
Ġfig ures
Ġinter play
201 7
ind er
res id
x ual
emb edded
ĠDe ad
Ġmicros p
Ġabsolute ly
Ġmyel in
Ġfour th
Ġpresent ed
ensi tivity
resp ond
ĠSpec ifically
rib le
Ġal cohol
at o
ĠD E
in osa
por ary
Ġcoron avirus
Ġfamil ial
Ġgr ab
Ġmicro tub
Ġvar i
Ġqu ant
ĠPh oto
Ġpl us
r ick
ar ks
Ġaltern ative
Ġp il
Ġpepti de
Ġappro x
th at
Ġoste openia
Ġobject s
Ġmy ogenic
ĠB Z
ĠR o
ĠU SP
ov udine
ĠAnd roid
INF O
ĠF NA
ĠSpec tral
Ġsignificant ly
ĠS afety
Ġins tillation
Ġhydro static
ĠR oad
Ġmeth od
Ġle iomy
Ġmil ieu
ĠT GA
k ay
a Ã§Ã£o
R ead
ĠI SR
av or
Ġj unctional
Ġa cknow
Ġer os
ĠH EV
ĠH D
Ġexpl oratory
ĠIsra el
ĠS ing
en zymes
O r
Ġun folded
ĠM ont
Ġsal ience
Ġun s
os arcomas
pro f
Ġneg oti
de ed
ĠAr ch
ik i
Ġimplic ate
Ġte levision
Ġexha ustion
ĠSl c
ĠJew ish
Ġtherm o
C ST
Ġcomm ittee
Ġchloro quine
ĠS Ps
Ġmot or
Ġfer ric
Ġprot otypic
Ġappear ance
ĠSe lective
Ġphosphor ous
Ġs itting
Ġosteopor otic
Ð¸Ð ¶
Ġstri ke
Ġneutral ization
Ġcros sed
ĠA CG
ĠD own
Ġpromp ted
ĠPlate let
Ġparsim on
ĠPH PT
com p
og onal
ĠHO MA
os igmoid
cyclo hexyl
ĠH ist
Ġleuk emic
Ġmicromet astases
Ġf old
Ġrib onucle
8 57
ac ement
ĠT eflon
ĠLou is
if en
Ġbel ong
Ġi PSCs
ĠW BV
ĠâĢ ¢
ĠNK T
Ġmetastas ized
Ġm ort
Sp earman
Ġpenicill ins
Ġprep ared
Ġinfec ts
ĠPT M
Ġ6 4
ĠM aster
Ġind eed
ĠACE I
ĠD en
b ond
Ġglycop eptide
Ġre nt
ĠT iO
Ġrelap sed
Ġubiquit inated
T A
Ġtermin us
Ġinstruc tors
our ney
Ġischem ia
ket oglutarate
ar c
inf ected
S u
9 7
Ġadv ice
ar cin
Ġchang ing
port un
Ġlist ed
io tics
Ġlaun ched
Ġlig and
is ation
ĠP eter
Ġcomp uted
is hes
Ġemerg ency
Ġl ived
at ric
ĠM el
Ġnutri ents
ĠSup reme
rain ing
Ġcon ges
ĠF ederal
Ġdop aminergic
ĠLys o
Ġ) ;
Ġhyperther m
ruct ure
Ġphleb otomy
Ġset s
ur one
Ġphil os
Ġinf lection
u ous
ec rosis
Ġfol list
ĠÂ ł
Ġmo tif
Ġonc ological
ĠCV Ds
Ġappl ied
asparag inase
ĠN OT
M CH
Ġhous ing
ĠN MA
ĠM ount
Ġm ari
bor ate
Ġo dd
Ġeleg ans
Ġaper tures
Ġsu st
re mia
Ġpon der
D A
Ġsor ting
9 17
ffic ient
angi ogenic
Ġser pin
Ġ ?
ĠControl led
Ġhyper cor
ol ved
M n
ol ite
ĠH MC
Ġp owers
Ġparen ting
ĠK AP
urren cy
Ġth r
Ġalle lic
idi otypic
Ġestu aries
Ġrem aining
Ġmimic ry
Ġsider ophores
ĠW ater
Ġre operations
Ġaerob ically
L C
Ġbi of
Ġcaud a
Ġca uses
si ties
Ġprod romal
ãģ ®
si bly
ĠS PP
Ġman ner
MP C
Ġrever ted
ad s
SC F
Ġhs CRP
Ġsuggest s
Ġassembl age
I OL
Ġend s
Ġcomplic ates
ĠMamm alian
stand ing
Ġhydrophil ic
rom eter
f ig
coup led
Ġkine tically
ĠD un
S EM
Ù ī
Ġphot ophysical
id th
Ġsup plements
ĠP OD
bl ot
ĠIn term
Ġg ay
Ġepit heli
ĠF acial
Ġneuromod ulation
Ġter min
Ġhypot ensive
Ġg ill
Ġhaem olytic
ĠS omatic
ĠAngel es
ĠP sycINFO
ĠA edes
ĠEnd ovascular
orp tive
M S
ph the
Ġincongru ent
Ġscient ific
et es
Ġse b
Ġco al
ĠF AK
ap ers
b ar
ĠThom as
Ġtrans ported
Ġsy m
Ġelect romy
ĠR un
Ġantagon ist
th is
Ġsim pler
P C
Ġvoltamm etry
prec ision
igr ants
SA H
ĠM ec
Ġmin ute
op anc
hed uled
ĠDist rict
ĠAc cess
cell ent
Ġle aves
M AD
Ġcomple ted
Ġm olds
am in
Ġfoc used
Ġac c
Ġmon itor
Ġanalys is
Ġveh icles
M A
Ġpredis posing
ĠM ass
entric ular
ĠGr and
Ġaffect ed
itution al
Ġconst ruct
Ġfollow s
Ġt on
re ens
Ġh omes
ĠE xt
ĠLe vel
r ast
ĠI r
Ġel im
ore tic
Ġlarge ly
Ġen amel
ĠJ oe
Ġb ronch
eff ect
Ġvot es
Ġprot ection
all s
Ġreli able
Ġbusiness es
ĠFound ation
Ð ĺ
ĠCent ral
Ġsh a
Ġb ug
Ġy ards
phosphor ylated
Ġepis iotomy
Ġmaterial s
è¯Ĭ æĸŃ
ul ner
Ġtransplant ation
Ġcycl otron
Ġgu ide
Ġst aped
Ġclos er
um s
tic als
Ġsp orts
Ġreinfor cement
ed er
Ġexplain ing
J ust
Ġtax es
8 4
åĩ Ĩ
ĠO ld
Ġmo on
Ġdec ade
ca pro
ÙĤ Ø¯
ol a
Ġind ustry
fr acture
Ġcolocal ize
Ġv ir
Ġmos quit
ĠPo int
ĠAD F
Ġdro pped
Ġintermit tent
Ġcarboxyl ate
ĠMn O
Ġdel ay
ĠCS E
recogn ised
it ect
Ġsc aph
Ġfib rogenic
Ġsec ure
Ġadj uvant
Ġthromb oph
ste in
ĠNO E
le vel
adher in
UD CA
Ġtre ated
ĠP artic
Ġinterrup ting
Ġfil ed
Ġob struc
Ġreconsid ered
ain e
mic roscopy
Ġv an
ĠGold mann
Ġm ir
ĠDQ A
Ġcol umn
ĠPair wise
ict ed
7 49
e per
Ġt arda
Ġro t
Ġb rad
Ġcons ult
Ġhe avi
Ġent ry
Ġmar ijuana
ĠD ou
Ġapparent ly
ok ing
clus ive
t ent
Ġincre ases
Ġmetabol ite
an o
c ardi
Ġspecific ally
Ġte le
ens ions
Ġf atigue
Ġrelig ion
ab ilities
Ġnull iparous
Ġfr ame
Ġz u
ĠN ote
fer tility
ĠLe e
Ġro p
Ġhelp ing
omy osin
Ġoct ogen
Ġed ge
aw ning
ez ers
ost on
Ġflav in
Äģ ori
Ġorgan izations
ĠA NA
Ġphaco emulsification
Ã ĥ
å ¢
ĠB oth
Ġcarb onic
hip s
Ġra fts
Ġbig ger
CT X
Ġbo ost
ĠEm otional
Ġdist ally
ĠSt and
ili ensis
odeoxy uridine
Ġro w
H U
le uc
ul s
brom o
CI N
ab ase
Ġwa ves
ĠRespon dents
Ġr id
Ġquantitative ly
ĠEpidemi ology
par ity
L et
est rogen
are n
Ġmicros omal
ra ve
Ġarb itr
Ġst ret
ĠMeth od
P D
ĠElec tron
Ġv ision
med ullary
Ġwe aring
Ġsp iral
Ġappre ci
Ġa ward
ĠU se
LD A
Ġfact or
Ġ19 95
Ġfill ers
w ar
ul ations
Ð¸Ð ·
) (
og ni
Ġg od
Ġsup port
ec ond
Ġter rit
Ġpar am
ast s
ĠKn owledge
8 7
Ġfa ecal
Ġen emies
Ġonc ogenic
ĠG ames
er ving
F F
el lec
Ġacc ident
Î Ķ
Ġint ensities
W ell
bir th
ĠMart in
est radiol
T ER
d elta
ĠPre paration
Ġat h
ĠE SR
an ica
ĠHe ll
si RNAs
Ġfor g
ID D
Ġve ter
MD C
ĠMed ic
ĠÑĢ Ðµ
f ree
Ġinacc uracy
Ġst ars
Ġtrin ucleotide
Ġexp ensive
Ġac ad
Ġh ope
ra wn
ophosph amide
ĠP Cs
ĠW he
Ġvascular ity
Ġl ock
Ġform at
Ġsold iers
s m
Ġag ent
Ġrespons ibility
or a
ĠS cience
Ġrap id
Ġt ough
ĠJes us
Ġbelie ves
M L
Ġwe ar
ococc i
le te
Ġbio active
es sive
Ãĥ ÃĤ
Ġsmo ke
ĠD ri
+ /
Ġcomm ission
ĠSus tained
ĠB ob
Ġnecessit ated
O h
ĠAdap tive
ap ed
Ġpotenti ating
Ġwar m
AT P
ĠS ten
ÃĥÃĤ ÃĥÃĤ
ĠIII B
Ġ200 3
Ġpre processing
ort ion
tr al
Ġtro ch
Ġhas n
A HR
ust er
Ġexud ative
Ġun ivers
æľ º
ĠI ll
C FA
Ġk ing
ad mission
olog ies
ĠEchocardi ography
ĠIdentif ier
9 4
ven ous
ĠC Q
Ġon dansetron
ĠT em
Ġobes ity
ĠPuer to
rain s
ĠM os
CO M
ĠGu ill
Ġpat ient
Ġcont ingent
Ġdisc ounting
ĠMex ico
Ġbi ventricular
ce an
ĠTr kB
ĠDe ath
rost riatal
ĠSand ers
Ġwhe e
Ġcommunic ative
y ou
Ġcylind rical
reat ine
ĠC ast
oc arp
Ġshell fish
ĠComp any
Ġtra dition
multi ple
pt y
Ġundoub tedly
glut amic
nic otine
Ġhappen ing
Ñĥ ÑĢ
Ġanthrac is
Ġauthentic ation
F P
ICS I
ra emia
att ended
ĠB attle
Ġag ron
am niotic
o am
Ġb ought
oli tica
och ord
A m
Ġintercal ated
ogloss al
M od
ve ti
U s
ĠD MA
ĠCon trac
ut ers
od iazep
ĠI x
Û Į
ĠC re
rop o
Ġcre ativity
ĠFc Î³
ĠTh ose
Ġp he
Ġattenu ates
og ast
Ġ4 4
ob actam
is er
Ġmetast ases
Ġinter species
Ġs oul
Ġshif t
Ġdeform able
ĠT op
ies t
ĠHar ry
ryst als
Ġinter layer
ĠA w
Ġse at
ff ee
Ġbisphosph onates
Ġrev olution
ĠCz ech
Ġ( "
ĠD uring
Ġmul til
et te
ur in
Ġr ing
Ġlymph atic
as ian
Ġoff ensive
ĠF SH
Ġreturn s
Ġv ideos
Ġj as
Ġdis cl
Ġfam ous
en ced
ĠMO G
ĠS ign
Ġdec ays
ĠR iver
in ten
dis pers
Ġ3 00
os amine
Ġrh od
catal ytic
P M
Ġphosph atase
Ġcycl ophosphamide
ĠM MS
ĠB us
Ġves ic
ĠC H
ĠP Z
Ġcandid ates
Ġexacerb ates
ard en
Ġpercent age
Ġvis ual
Ġfam il
Ġthan k
er ved
Ġtrou ble
ner gy
Ġ200 1
Ġpro ve
H IV
ash ion
Ġker atin
im aging
Ġen h
ĠL ong
U M
Ġconnect ed
ĠSubst antial
Ġposs ibility
E SCs
O ver
Ġexper t
Ġl ibrary
art s
Ġin struc
ĠDirect or
ĠIncreas ed
Ġfell ow
ran ce
9 2
s ors
Ġtransm ural
ir ty
Ġcann ot
lip id
ascul ature
Ġd ry
ĠLew y
Ġsign s
Ġcand idate
ĠM ERS
ĠL ove
Ġpolymorph ism
H SA
Ġqu iet
f oot
Ġp ure
ĠH un
Ġangi ography
Ġf illed
Ġnucle obases
ph as
ĠHydro x
ĠE lect
ĠR ING
Ġwal nut
end ment
Ġrecep tivity
ilar ia
ĠEx pl
ĠAE COPD
Ġun able
Ġamphiph iles
n s
B OD
m o
ĠI TA
Ġv ast
apl an
ĠE ES
ob e
ĠR hip
Ġident ify
ĠSD F
pro state
app ing
Ġbip henyl
ĠSA HA
ĠCarol ina
process ed
g ress
Ġgen u
NA FLD
Ġpro te
Ġh itherto
ech ni
ĠNeisser ia
Ġf ish
é ª
Ġcircumst ances
raz y
ĠPh ot
Ġb odies
di a
ĠM ur
Ġweak ly
Ġdevelop ing
ĠA R
Ġin duction
Ġexperien ced
ac tivity
Ġsubst ant
Ġthe rm
ĠBo ard
Ġnucle ar
es ome
Ġsp ati
Ġpo inting
Ġdom estic
Ġmonit oring
Ġoes ophag
Ġcomb ined
ure d
ĠP ut
Ġidentif ication
Ġchem ical
ĠCh ild
Ġpo ol
ĠC y
Ġe gg
amb da
c ons
Ġfil aments
st ers
Ġelectro chemical
Ġdil atation
Ġh urt
Ġspontaneous ly
throm bin
Ġmark ets
Ġman dibular
oglyc an
Ġconserv ative
Ġconstruc ts
ĠS olid
Ġsupp orters
Ġag encies
id el
O b
Ġaber rations
ur b
Ġpos ted
Ġ4 3
âĢ Ĭ
ĠHa emat
ĠDef ense
Ġpre vention
Ġar tif
y e
ĠrÃ©sult ats
ĠA p
Ġamin otransferase
8 27
du le
Ġneopl asia
U GT
Ġtemper ature
ĠL GA
Ġconduct ed
Ġiniti al
ÐµÐ½ Ñĭ
ĠCh ief
y ro
Ġtravel ling
Ġpull ed
Ġvalvul oplasty
Ġf ol
Ġs ire
L ast
Ġch an
ont o
os is
V ER
D es
ĠP an
Ġthym ectomy
F irst
Ġadv ance
Ġlic ense
Ġes ter
r ors
C LA
ĠJ on
Ø§Ø ³
N SCs
Ġimag ine
tim a
Ġacetyl salicylic
Ġhe ll
Ġbiotin ylated
Ġtax ol
Ġf ixed
Ġasphy xia
Ġlever aged
Ġinc or
lik elihood
os ite
ĠL og
ick en
ĠK aplan
] :
ĠNeu romuscular
Ġsurpr ise
Ġvolum etric
ĠGH G
h ab
Ġmeth ionine
ĠPath ways
Ġc raft
Ġam ine
Ġpar acentesis
ol t
Ġ4 97
ĠJ ul
ĠA RPE
omet rial
Ġd ial
Ġkerat ectomy
Ġdivid es
Ġrele vant
on ts
ou ti
Ġent ered
to fore
ap lex
Ġlead s
ĠPrim er
Ġend othermic
ĠA D
lop ride
HR S
ĠCle an
ÅĽ ci
Ġdiscrimin ates
Ġpict ures
ess or
Ġspec iation
Ġal t
OR TC
Ġpay ing
ser onegative
P er
apprec iated
ĠMark et
ĠS b
Ġupd ates
Ġverteb ra
omed ullary
am ily
A MD
Ġbi ocatal
Ġparsimon ious
ĠT ype
ĠPath ology
ĠElec trical
sp here
ĠH ome
ofl oxacin
Ġcomplic ate
anol one
Ġ5 5
ech anics
Ġa a
Ġdent ures
Ġperoxid ases
semb ly
ĠCO D
(- )-
ĠB CVA
0 89
rom e
Ġb arc
Ġest hetic
chol est
8 3
ub ic
clinical trials
Ġdeproton ation
Ġgreat est
quin oline
ĠBrug ada
Ġhe ight
di bular
ĠC JD
Ġhe av
y cin
org anis
oconjug ate
ain ts
Ġof fer
ĠQ ues
u terol
ogra fting
Ġlist en
ophil ic
Ġem ulsification
Ġend otoxins
as er
ensi ties
Ġtra ditions
fer ri
ĠS H
Ġcyt ochrome
Ġdec arbox
ch or
Ġproportion ate
Ġcap able
Ġprim iparous
Ġnon destructive
ÙĬ Ø¯
ac le
equi valence
Ġameric ana
Ġpers pect
ĠPM MA
he parin
Ġguardi ans
in ating
%] ;
ĠPA A
N NT
Ġoff ering
sign aling
Ġprolong s
ĠN SD
ry pt
Ġinter quartile
Ġhind rance
Ġpl otting
ĠDe velop
ĠC is
Ġdyn amin
AS CT
ab in
valu able
Ġmetabol ize
Ġrhiz obia
r c
Ġbreed ers
Ġbr ight
ĠS CC
princ iples
al ty
im id
ar row
Ġsupp l
ind ing
ack ed
gy pt
ĠAn other
p g
ĠVirgin ia
ĠL u
ore nal
Ġpl anned
ĠC BP
Ġpr Ã©s
Ġp it
Ġer ythem
Ġlam otrigine
Ġswe et
Ġbioavail ability
oxid ized
T ype
Ġmathematic al
Ġpauc ity
Ġspe aker
ĠD i
LI N
ĠTF II
Ġtyp ically
Ġrestrain ts
Ġsubspecial ty
ĠFranc isco
en one
Ġanth rax
Ġpro spect
ĠF amilies
ĠS PAR
ĠD an
Ġte en
M CF
re es
Ġo edema
cyt ochrome
Ġsc hed
ophe rol
Ġh ol
Ġinfrequ ent
Ġsc r
Ġder mal
Ġlot s
l ife
Ġnews p
Ġfor get
ĠN one
M BP
ĠM iddle
op razole
ĠR yan
ed d
Ġse vere
Ġsu it
otherap y
ll er
Ġdi rect
9 3
Ġdist rib
Ġcor respond
leu kin
Ġexpl os
u ations
transfer ases
Ġfl ag
Ġintr al
g ame
cor tical
r id
Ġpr in
ĠD ata
Ġde ploy
ĠEn ter
Ġdil ution
su it
Ġcal ibration
gh an
opath ologic
ĠM en
Ġthough ts
in duc
Ġmat ters
nec ess
cop y
Ġad apt
Ġfacilit ators
Ġtr ifluor
ĠA ri
re ducing
Ġf ill
Ġfor th
Ġs am
Ġ4 1
Ġpay ment
Ġdi ed
ĠH or
ch ond
Ġsp ring
lis hes
ĠEx cell
du c
Ġprior i
ĠIs sue
Ġl osing
Ġbring ing
F O
al a
ĠP ICU
Ġdist ribution
Ġsc apular
he red
b our
ĠIsrael i
re ments
om a
jec tives
Ġcomb ination
Ġdis t
Ġpl enty
V E
C an
Ġretin oic
ĠH aw
Ġchick s
Ġper man
Ġg ab
ĠSpe cial
en kephalin
Ġto w
y seal
Ġsee king
Ġres emble
Ġexam ples
Ġsl a
Ġclass es
c r
oc aine
Ġbe er
as si
Ġmov es
ĠI P
ĠK n
Ġpan el
E ven
ul sion
Ġproper ly
Ġr is
phen ol
Ġpl ug
Ġcer vix
Ġestim ated
Ġnec ro
ab ain
E very
os ter
Ġdef ensive
Ġs leep
ag raph
Ġchan n
Ġexternal izing
Ġpre gn
Ġs itu
Ġinst it
l ob
ĠV ict
Ġobjec tive
Ġvol ume
Ġpos itions
Ġl inks
ox ygen
ĠPro gram
ĠWe ek
ag ues
m embered
Ġtrans form
k er
ĠC EO
Ġimmun ized
Ġc as
Ð¾ ÑģÑĤ
Ġopp onent
Ġtwe et
ĠC ode
Ġsh op
Ġf ly
Ġtal ks
Ġb ag
Ph one
Ġ- -
Ġa id
Ġcomprehen sion
Ġpl ants
rec ted
con trast
Ġ6 5
Ġles ion
Ġdevi ation
s ignificant
Ġatt orney
Ġass ays
Ġdis rup
Ġpl as
Ġcor onal
ar ters
Ġdi vid
Ġunc om
Ġlign in
qu est
ant um
ĠMag ic
Ġsqu amous
Ġbeg ins
Ġdi alysis
Ġmy ster
Ġtrans genic
Ġmultic entre
Ġenvironment al
Ġneuro genic
Ġst orage
N N
Ġm arg
Ġul nar
Ġs ke
il ine
Ġmet al
Ġolig omer
ell y
Ġprotoc ol
ed ipine
Ġord ered
Ġg ating
Ġrem ained
Ġchlor o
Ġpeak ed
Ġl oved
Ġsubstit utions
Ġsent inel
Ġprom pt
Ġperf used
Ġguar ant
Ġupd ated
Ġintegr ating
Ġexper ts
H DL
Ġwalk ing
Ġprincip le
Ġvaccin ated
Ġan cient
Ġp ituitary
ellec tual
Ġperform ed
Ġatheroscler osis
AT E
Ġw arr
Ġne ither
Ġa th
ened ione
i ency
CA M
Ġre tic
Ġhypoth yroid
Ġmanufact ure
Ġat opy
ĠP ak
har vest
Ġselect ed
Ġpo res
Ġmicrod iss
Ġm ine
ĠAl ber
Ġult imately
Ġpropri a
orh inal
Ġexpl an
Ð ¶
Ġlab el
Ġadj usting
am oeba
ĠServ ices
Ġstudy ing
Ġtherapeu tics
ĠS anger
ribut ed
ĠCor onary
ph armacy
Tr ump
Ġend o
Ġsy n
hes us
ĠU lt
ĠHT LV
S C
Ġprojec ted
Ġme at
atis m
Ġg iant
Ġnucle oside
ĠW ars
Ġend oplasmic
ĠO N
Ġcareful ly
Ġdef oli
Ġad m
roscop ically
Ġinter pret
ĠT n
Ġeven ing
Ġinter molecular
Ġev il
ab sorb
ĠB oston
tr ated
ĠW ild
low er
ĠC HA
Ġ Ã
Ġmil der
Ġeradic ate
ĠBit coin
ap tic
Ġphylogenetic ally
ĠAm azon
ter minal
partic ip
D r
ĠS SR
EV AR
ĠIn formation
Ġun iver
F LC
Ġobvious ly
Ġadv anced
Ġmicrogl ial
Ph oto
CV D
ol ar
Ġwe ather
Ġcomp on
Ġsymb ol
ocyt es
Ġso le
Ġpot entially
ĠE GFR
ost er
Ġorig inally
m un
Ġduc tal
3 00
az e
Ġhom olog
ess ions
Ġc essation
Ġnat ri
Ġde ck
ater ally
Ġst ood
Ġyou th
ra i
ĠB ern
Ġ4 73
R ep
TA VR
oly b
ĠT est
ÐµÐ ±
Ġpur ging
Ġbas ically
UV B
Ġflex ure
ot ic
Ġleak y
Ġinvol ve
Ġenvis aged
ol it
of ungin
ly n
uff ling
S ee
Ġair craft
Ġconf irm
E W
Ġmess ages
Ġda idzein
ĠRich ard
iment in
Ġpreca ution
Ġk it
ĠE pit
Ġpro hib
ĠC ycl
Ġv ulner
os um
ĠInteg rating
is ters
Ġexist ence
Ġc iliary
Ġturn ing
Ġparen tal
Ġune ventful
ĠS P
Ġconsecutive ly
Ġdes ire
Ġfl at
Ġove restim
Ġm ent
erg ies
Ġglyco lysis
se ason
ceptor s
Ġretin opathy
Ġ %,
ang es
part ate
ge vity
Ġdip eptidyl
Ġneighbor hood
Ġextend s
tris phosphate
ĠL ake
le tion
Ġtrans gene
acti ae
AT ION
pres sure
Ġspik es
Ġcan tile
Ġpoint ed
ĠF lu
Ġpath om
Ġintrap arenchymal
b ur
SD S
Ġheterot rim
ĠInhibit or
Ġinn ov
ĠS LT
ari as
uc ks
am eth
ress ure
U L
adec ane
ĠC erebellar
Ġprofess or
Ġplac ing
Ġc une
con ditional
Ġexp ressed
ĠECM O
Ġvic inal
A B
ĠMut agenesis
ic ious
vir us
k ip
Ġ200 2
Ġap ically
ĠDe v
Ġcat tle
Ġs ession
Ġpa ired
epithelial ization
Ġb are
Ġcathe ter
cTn I
s en
Ġhom ocysteine
Ġdis s
ĠC ath
ĠP ass
ĠE AT
ĠP oint
ĠMI A
Ġdo ctor
Ġpolyke tide
or row
T ACE
ail ed
ĠCa esarean
ĠR ub
ĠAT X
ĠD C
ch allenge
Ġcyan obacterium
ĠChar l
Ġpem etrexed
p erson
oph ysis
Ġwrit er
Ġnucle ases
igh ters
ure au
Ġob lig
Ġrecord ed
ĠN rf
Ġbro ke
Ġord ers
il ty
Ġmot ion
in ity
l aw
Ġcarb on
ad ium
ĠP ND
Ġimm igration
Ġcontr ast
Ġb att
entr al
Ġex cellent
Ġtechn ical
am i
Ġhe par
Ġt un
Ġlamin a
Ġcl oud
Ġb owel
Ġket amine
ĠY ear
Ġfibrobl asts
Ġm osaic
ge on
de g
Ġdiscern ible
Ġcre ation
cor rected
Ġimp regn
Ġan Ã¡
Ġstr ange
anc omycin
ĠT c
class ical
Ġtherapeu tical
Ġa uth
opress in
Ġoligonucle otide
syn chron
Ġdistress ing
Ġfor t
ĠO verex
Ġentrain ment
b orn
ĠEmerg ency
Ġstruct uring
O Cs
Ġext ent
ĠRe placement
ĠT oday
Ġarmament arium
ĠCl ub
ĠH h
Ġr ain
Ġbi oluminescence
Ġs ample
Ġpolyaden ylation
Ġaccept ed
Ġabdom in
Ġt act
resid ues
Ġf ired
Ġaort as
ĠS on
in ins
Ġv omer
Ġstand s
ele vation
Ġb oot
Ġfem tosecond
Ġac rosome
Ġ4 7
methyl ene
Ġstat ements
Ġvers ions
Ġse lling
ound ed
Ġ199 0
Ġover hang
Ġwere n
ĠS yn
ozyg osity
ĠW atch
Ġin patient
atid ine
Ġexper iment
Ġillustr ate
har mon
P ost
Ġcat s
Ġhydatid iform
Ġret ail
free ze
id entity
ul ed
Ġmax illofacial
T NM
Ġol arak
In st
prop ylene
ĠHem orrhagic
un te
ĠH RP
Ġinterl aboratory
ãĥ ¼
Ġc hest
åı ¯
Ġdan azol
Ġdep art
ĠC d
ac ulture
ÑĥÐ½ Ðº
Ġb ond
ptom atic
ĠS SA
yl oxy
i very
Ġel derly
Ġlear ners
om pl
Ġlac rimal
Ġre action
ĠSyri an
Ġca use
ĠP ac
app ed
Ġasc ites
ani el
D P
Ġres olution
Ġre act
Ġa ortic
Ġappro ved
Ġf um
on om
Ġstrom al
Ġultra violet
m ond
Ġelectro cardi
ĠPrevious ly
ĠO ffic
Ġverteb rate
-- -
um ental
Ġrepl ace
Ġt ack
Ġsp ort
M CA
Ġch ain
Ġantic onv
Ġemer gency
Ġren dered
r ad
Ġprepar ing
ĠPalest in
Ġple th
Ġ4 6
Ġautom atically
Ġsup pressed
Ġrout e
Ġp al
Ġb anks
ĠPar is
ĠMed ia
Ġoste olysis
ro ad
ĠMin imal
Ġion isation
ic ing
Ġbio impedance
i xt
rol ith
olab ial
ist ed
ĠZ imb
fuc ose
Ġg rew
ĠS FA
ĠHEL LP
Ġco ord
Ġporph yrins
N d
ĠW here
Ġocclud in
ĠBe ad
om in
ĠMic ros
Ġgamb iae
Ġparthen ogenetic
Ġsub s
Ġbuff ered
Ġser otyping
ï¿½ ï¿½
Ġga uge
ĠÎ £
ĠÂ ±
os acral
Ġcorpor ate
ol amine
Ġse lection
calor ie
n oon
P LD
ĠRep ort
Ġindividual ised
c s
Ġext ensors
clud ing
Ġgly cer
ĠAR E
ord ers
9 37
Ġphotoc urrent
anc he
Ġcombin ation
ĠIt s
Ġre nal
Q X
Ġslow ly
Ġp epti
Ġfront oparietal
ĠE gypt
al anine
c R
ĠA cc
e ties
Ġcol le
iqu es
E X
Ġattempt s
Ġsol ute
ur l
ĠC ross
Ġfind ings
ĠS C
ĠO R
Ġdiss ection
Ġind ex
Ġhyp ox
ens ity
Ġcharacteris tic
ĠW ay
Ġsymptom s
ti al
ĠL and
Ġsh ock
d is
Ġd ynam
Ġc art
m osp
S ince
Ġimmun ization
i est
ĠB oy
Ġst orm
ĠCont in
201 3
he w
Ġhyper cholesterole
il it
CI S
Ġess ential
iqu id
Ġth rom
O ther
ĠT wo
ive red
Ġim plic
Ġreason able
Ġ her
Ġrecru it
A ct
Ġscre ened
yroid ism
Ġsub sequ
Ġexcit atory
on ae
ĠP ack
Ġspect roscopic
ĠT RS
ĠF ort
Ġgroup er
Ġconsider ing
gen ital
Ġun iversity
xim ate
l og
Ġz a
Ġmar ried
Ġdisc omfort
ĠBanglades hi
Ġill ust
ĠR CC
ĠTr ue
o active
£ ı
Ġphospholip ids
Ġnumer ous
ĠE MG
rast ructure
duc tor
Ġserious ly
Ġimp acted
Ġrefer red
c arotene
u a
Ġpro phyl
Ġmann ose
Ġconsist ent
Ġprote omics
oc clusion
on na
Ġmum ol
Ġsar copenia
ĠRe al
ru ption
ci ples
Ġfact s
9 1
ot es
pl ants
er g
Ġs hel
The n
antit ative
Ġacc ompl
Ġrec tal
N ote
Ġbo ys
Ġre venue
Ġpass ing
Ġm al
e en
ĠY et
Ġg ather
ter day
ap illary
ew ork
Ġnanow ires
ĠA uthor
m Tc
P e
Ġty ros
Ġopt im
Ġvolt amm
Ġtrans ected
Ġr ub
ĠInc idence
Ġstear ic
Ġè £ı
ĠC p
ĠFT IR
on ated
Ġun known
Ġmo ving
Ġinfer tile
ub o
st one
mit ted
Ġserot onergic
Ġun ion
Ġman dible
Ġat resia
ol ve
lymph ocyte
Ġopportun ities
ep tin
Ġbrow ser
Ġprotein ase
ĠW al
ĠC ost
oster oid
Ġreport ing
reg ulatory
st s
ĠAnal ysis
p et
Ġvess els
Ġs and
Ġsudden ly
Ġsurpr ising
Ġprist ine
ĠV R
Ġsomew hat
ĠPos sible
ĠB as
ult ure
Ġsplic ing
iz z
Ġen cephal
ĠC D
Ġpres cribed
Ġchalleng es
Ġro ute
Ġsett ings
Ġr hythm
Ġexperien ces
ĠF ull
Ġcan n
Ġglut amic
Ġrece iving
Ġwave gu
ES T
Ġcor tex
Ġj oint
ĠP CR
Ġcult ural
Ġeff icient
Ġa st
Ġcons tit
8 2
as tern
Ġe qui
ce ived
Ġmicro b
ĠC ru
Ġsatis f
Ġph age
Ġb ull
p ired
plate let
am m
ocicep tive
Ġfac ing
ĠP FS
p ower
Ġthym us
Ġb oss
ĠH ol
Ġinst r
Ġpro pri
Ġincreasing ly
Ġab stin
Ġsh ift
Ġmelan oma
Ġintellig ence
Ġstre ets
Ġam yl
plic ated
ĠWilliam s
Ġdec l
ab b
a ro
Ġl ie
Ġl augh
ĠC a
P L
Ġcorrel ated
Ġadult s
ie tic
Ġcustom er
Ġves icles
Ġob tained
ĠÐ ¿
Ġunw inding
Ġsupport ing
Ġtunic amycin
ht ml
Ġpre treatment
cer tified
f ire
Ġdepart ment
Ġdetail ed
Ġpick ed
ĠR ight
ld er
E E
st ood
ĠK im
Ġisoc itrate
Ġw ire
Ġne opterin
Ġnit r
Ġs ight
Ġdaun orubicin
Ġdevelop ers
Ġqu orum
Ġpers ons
og as
ĠAng II
Ġs ad
Ġc up
ob iliary
Ġwar ning
Ġboy s
Ġpar al
l ong
Ġsymmet ric
Ġb ird
Ġneut rop
Ġphotos ynthesis
f o
Ġw al
ĠBir th
Ġobserv ed
Ġz one
iven ess
Ġ ubiquit
Ġch annel
Ġtum ours
c ript
Ġref used
ĠAg ain
ole ucine
Ġsu c
hydroxy vitamin
Ġspokes man
ĠRe f
r ite
usion s
ou ston
Ġhy gi
ĠCom plications
ãĥ ³
ĠS her
Ġact s
ĠN ame
Ġstrugg le
ĠEn zymes
ar ry
Ġeth anolic
Ġintegr als
omet imes
IP T
Ñı Ð·
Ġdisc rim
Ġheter otrophic
rank ed
H T
ĠHR s
Ġdamp ened
Ġcateg ory
Ġd og
Ġsphingomyel in
Ġinfra orbital
Ġreal ize
Ġpos terior
op enia
ren s
Ġre analysis
Ġemploy ee
Ġaccep ted
ĠMy ocardial
Ġrhabdomy osarcoma
ĠAf ghan
lab eled
ĠAd ding
en ger
Ġform er
ĠInter actions
Ġperchlor ate
Ġgun s
Ġcys titis
ĠS IS
ĠSte ve
ĠL HRH
Ġpre transplant
ĠM ot
als artan
ĠO l
ĠGR K
ok ed
Ġnod al
Ġth ick
p rin
Ġfair ly
ill y
Ġelectroph ysi
Ġsur ve
Ġadjunc tive
ĠM at
çĶ ¨
we ight
ac cha
enc oded
â Ķ
Ġmat ter
Ġintermedi ates
od ia
Ġtro ops
ol low
Ġelectroph ysiological
id us
Ġag ents
acet ate
ĠP PV
Ġbatter y
Ġperc enti
ĠPM N
Ġmot iv
ĠA QP
Ã ¡
Ġall osteric
S ec
d en
o very
L S
Ġfl u
Ġde vices
Ġconf ident
ĠO per
Ġem pty
Ġre actor
Ġp hen
ep ilep
Ġse ctor
Ġ lymph
Ġexc ited
Ġrem ote
ap h
o en
Ġdestroy ed
ĠG BP
Ġmor al
Ġaccession s
urg ent
ĠH P
Ġimmuno assays
ĠR on
Ġminim um
ĠC ushing
Ġd ress
oph osph
ĠB at
Ġquantif y
Ġprecipit ate
Ġl it
ĠRO I
ĠM S
b eta
Ġa f
H L
Ġc in
r um
éĩ ı
is ms
Ġshould n
Ġidentify ing
Ġsym pt
Ġradi otherapy
ĠTor onto
het ic
inoc ulated
Ġcar bon
ĠN IV
Ġinstall ed
osp ores
Ġviol ent
Ġadnex al
Ġsol ar
Ġli qu
j a
Ġar ach
yro xine
Ġpract ices
Ġfraction al
Ġs tern
iz ure
Ġr ide
Ġp ep
co tic
ĠP enn
Ġmicrom eter
Ġimpro ved
ĠRadi ological
Ġaud io
Ġop tim
Ġantagon ize
Ġbehav i
Ġac inar
Ġdab igatran
ĠP S
Ġper ia
ĠMalaw i
Ġe ating
Ġech ocardi
å ģ
D ata
Ġmix ture
PD L
ĠRe view
p ass
cl aim
u ated
ang ers
c hen
Ġproper ties
Ġc elecoxib
Ġany where
An other
Ġhist ogenesis
Ġbl ow
ĠOx y
ĠJack son
Ġp roud
6 37
Ġplan e
Î ¨
l ines
Ġc est
Ġsqu are
Ġmus h
Ġpro of
Ġirradi ated
ans as
Ġcell ulose
Ġves icle
Ġtalk ed
ĠH NC
m akers
ĠTr x
Ġs ister
Ġsc enes
Ġpara quat
Ġhold s
ĠCd k
ĠRy R
Ġres ident
Ġcerv ic
ĠT DF
Ġ= =
Ġremin der
Ġresist ance
é ¡
Ġspl it
Ġs old
Ġpro secut
F V
ÑĢÑĥ Ð¿Ð¿
Ġconf idence
b ronchial
res ents
vers ity
Ð» ÐµÐ½
Ġcut s
Ġsurve y
Ġexcept ion
s tit
a romatic
Ġz ero
Ġmulti potent
Get ty
Ġsuc rose
sulf ur
Ġcop yright
Ġanalog ues
oph oresis
Ġtot ally
Ġ umb
hydrox ymethyl
oster oids
orm al
it r
Ġlip ogenesis
ific ations
Ġscenari os
ĠTren ds
ĠAustral ian
enz a
e vit
Ġs ick
ophage al
aden oma
Ġ1 50
Ġhouse hold
ĠCS F
Ġfe es
Ġlea ves
ap opt
Ġdri vers
Ġgrow n
og en
Ġper c
ĠN Y
ati c
ac il
Ġnecess arily
Ġres ected
dom inant
Ġregul ations
Ġplac enta
Ġexc ised
Ġper tinent
ear ing
Ġventil ated
s l
Ġcon formation
d ural
Ġperspect ive
Ð¾Ð ²
c are
ic ial
H is
Ġesc ape
ensi ti
Ġsurpr ised
Ã© es
ĠV an
Ġphyl ogeny
ur rent
Ġdes ensitization
Ġyog a
Ġv ac
Ġoxid ant
lu ents
8 1
Ġhyper al
Ġstem ness
ĠTh us
Ġem phas
ĠU sing
ĠCh ampions
ĠI ce
Ġn arr
Ġhead s
Ġinterfer ing
Ġca using
ures is
b el
ĠContr ary
f ortunately
ĠM a
Ġtarg ets
ci pl
Ġafter noon
Ġadd s
ĠMay be
ĠF our
ess ed
ple te
Ġus ual
Ġtheore tical
ch o
Ġcul tiv
ing u
Ġmyel oid
Ġbi opharmaceutical
Ġwith d
Ġdescrip tive
ĠFF M
ĠV KA
ĠE nergy
el ves
85 8
ĠE conom
fe eding
O O
ly tic
Ġart icles
d istal
Ġinj ured
Ġfor tification
Ġman age
Ġmic turition
Ġexpl ains
lu or
Ġu rolithiasis
Ġdi agn
chain s
R ec
Ġc italopram
at ures
Ġrecirc ulation
se gmental
Ġlink ed
d uce
CN V
Ġdeterior ate
Ġdiscuss ed
Ġhouse keeping
ĠL ifestyle
Ġexpl o
col ony
Ġes pec
Ġocc asion
Ġad di
par ty
ath an
Ġopp osite
Ġfac es
Ġden ied
ĠK night
Ġn ut
Ġapprox imately
Ġdisapp oint
onym ous
ĠB est
ĠL o
Ġco factors
ĠH y
Ġmeth ylated
carbon yl
ĠA ff
Ġpath ophysi
ĠD XA
Ġvot ing
Ġspi ke
oporph yrin
an while
Ġphosph ates
ĠII I
yl oid
Ġinstit utions
ag ram
di rected
ĠD aily
Ġphen othiaz
Ġdr ag
T hy
Ġnear by
e ug
Ġgu ilty
Ġad hesins
Ġcon ver
ĠE PP
P re
Ġ4 49
s hip
Ġro admap
Ġre ward
cyt osis
ĠÐ ļ
Ġphilos oph
Ġmul tim
Ġgal anin
97 1
ĠS S
Ġprogest in
Ġcer ium
u gh
ĠI NH
) <
Ġapp s
ur sing
f riend
ser um
ĠD BH
Ġu pper
Ġto d
ired oxin
Ġad vert
Ġgen istein
ĠState ment
Ġs now
Ġmask ing
olig o
Ġfr ust
isp anics
ĠFig ure
Ġour selves
ĠQT c
Ġferroc ene
F r
Ġspe akers
ĠD ie
Ġtrans dermal
amp ion
Ġam nes
Ġdis miss
ĠV H
Ġc ere
Ġsign al
f rom
Ġ ).
Ġ5 2
Ġcomb ustion
Ġcr imes
in vasive
ĠY AP
it ors
ĠDec ember
est ival
Ġu ro
use um
ĠInvent ory
Ġcoun cil
Ġdyn am
Ġmus icians
ĠS aud
M ay
ĠG un
Ġm erged
ic ian
ĠD BT
et her
ha ir
Ġsu fficient
Ġreflec t
ĠImmun ocyt
ĠH en
truct urally
so le
qu is
Ġanti d
Ġhistor ical
Ġath ymic
ĠF ar
as tric
Ġlymph o
ĠT urn
Ġexp endit
Ġsim ian
Ġcyn omolgus
Ġp in
Ð°Ðº ÑĤ
Ġsuc ceed
romy ces
opl iteal
m at
methyl transferase
ly mp
Ġcon ventional
ĠEB NA
Ġtrad ition
ĠO k
Ġc ro
Ġlow land
Ġdesc ription
ĠÐ Ł
ĠS ID
al le
trop in
ĠH EP
Ġsk y
Ġanth ocyanin
T e
Ġkerat oplasty
Ġwide ly
Ġdi ode
Ġw ave
Ġassemb l
Ġdefin ition
ĠSever al
Ġen graft
ĠJew s
Ġstar ted
respon siveness
Ġcy cle
Ġdrink s
Ġisos orbide
Ġref ere
é ¼
Ġbr ings
end en
us al
Ġend ograft
Ġal ive
Ġaqu aculture
ĠNe ed
Ġfrequ ently
Ġl ibr
N IR
ï¼ ľ
Ġint ention
Ġu rological
Ġcoinc idental
ĠCont rol
d romic
PTH rP
l v
ĠD AS
klah oma
y stem
Ġesophag ectomy
Ġp ater
Ġpriv acy
t aneous
DO PA
g ent
Ġconfir m
Ġpart urition
ren ce
Ġmid gut
ĠQu est
ĠChrist mas
Ġr ail
Ġco oper
Ġtest ed
Ġcolle ag
ĠC apt
Ġpattern ing
as ks
Ġmarri ed
Ġcomfort able
Ġdel ivered
Ġan ode
sc ape
Ġdep th
ĠG OP
Ġwrit es
Ġass ets
Ġsa v
oencephal ography
im ents
TP O
Ġtrans ition
eng ue
Ġart ist
Ġal anine
ĠL ook
Ġl ob
Ġcomp onents
ar ity
Ġwalk ed
Ġnit rite
Ġro ot
Ġcon dom
CB CT
Ġparticip ants
a rent
chym a
Ġnot iced
âĢ ¯
Ġres c
yl ation
Ġn av
Ġparamet ers
Ġpol lution
ĠAd minist
Ġal low
d a
ut ral
Ġpolym ers
pl ate
rec ed
Ġimport ance
Ġhomogene ity
Ġass ert
Ġsimple x
ious ly
ĠAl coh
c ription
Ġinj uries
ĠChe ck
Ġregist ered
ac oustic
Ġint ent
Ġsib ling
Ġmiss ed
Ġmet agen
ograph ic
Ġsent ence
Ġbehavi or
oun ter
Ġassist ance
ev in
Ġdat abase
Ġbuild ings
Ġclass ic
Ġth inks
Ġhyper gly
ĠOh io
Ġneurotrans mit
P r
ug g
Ġfe e
Ġins oluble
p an
d ication
Ġeffect ively
ĠA RT
ĠM CM
Ġfac ility
i ques
Ġbe ar
Ġattrib utable
Ġmicrov asculature
Ġch apter
Ġs elen
Ġbrid ges
ĠR inger
Ġdog s
ap enta
ĠCol umb
sk y
Ġl atter
ĠÃ©t Ã©
it ial
Ġad mitted
T V
ĠGe org
Ġpost s
Ġsub sample
\ \
Ġneuro leptic
Ġlawy er
ring ens
Ġequ ival
Ġham artom
Ġm and
temis inin
Ġcontro lled
Ġau tism
pro xen
ĠW alk
Ġmotif s
ĠCo ul
ĠAnd rew
Ġnons urgical
ĠCollabor ative
Ġmen u
Ġmulti system
am ental
emb ran
CV I
Ġprotect ed
hy roid
ĠEPS Ps
v a
Ġhyper triglycerid
Ġcontag ion
Ġadminist r
ĠNec ro
or al
Ġre in
ĠS ar
Ġemphys ema
Ġamount s
00 05
Ġanti inflammatory
Ġn ative
Ġlat encies
Ġdisplace ments
ĠM oon
Ġfib er
Ġtric uspid
Ġrep resents
I CA
Ġab andon
Ġcarry ing
Ġt ank
unt ered
m ary
pl astic
Ġac ceptors
Ġdecl ared
ç »
Ġasthm atics
T ube
Ġenco untered
ĠExam ples
ĠGR ADE
Ġh at
otyp ing
ĠF asting
Ġech ogenic
Ġpun ish
Ġleak s
mill ion
gel atin
el lect
Ġseal ants
m es
op am
Ġun iverse
ĠI CL
ĠR od
Ġsh ik
ph y
ĠR CS
Ġinf rastructure
ĠN MR
Ġchlor ides
Ġ5 1
PP G
Ġopp osed
ĠAss isted
ow nt
ĠEl bow
c a
UP LC
ĠM ake
o arth
Ġhard ware
ons et
Ġco ffee
Ġfil tration
ar ith
R el
Ġequ ine
ĠV ibrio
b al
Ġe wes
w orld
op o
ĠClin ically
ĠS af
Ġever y
ĠSe a
Ġanti oxid
in als
Ġown ed
Ġh all
Ġbout ons
ers ion
Ġres urgence
Ġdescrib e
c rown
ĠP ot
Ġret ros
ĠPres cription
Ġport ion
Ġappro xim
ĠBayes ian
ĠE DL
Ġat mosp
Ġexperim ents
Ġcalc ification
ĠChi ari
Ġgovern ments
Ġvol untary
ĠCAR D
Ġdep ending
Ġthoraco abdominal
Ġoff ense
ĠFF PE
Ġtr ick
aw a
ĠL ine
Ġasym pt
ĠV is
ric k
ĠP PP
ĠH ard
Ġadap ting
ĠOr ig
Ġol anzapine
ĠCl ick
Ġsten oses
Ġstrain ed
Ġdes k
Ġast axanthin
ĠVal ley
ĠF EF
ĠS ov
ester ification
Ġmov ies
ĠDepart ments
Ġrem ark
G MA
Ġbothers ome
Ġm ail
oc omp
6 49
Ġcons cious
Ġbout s
Ġrul ing
Ġlos ses
ep sia
ĠR ights
Ġmed ic
olin erg
he nt
cross ing
ĠW omen
Ġmilti orrhiza
> <
M OS
Ġrepl aced
g ast
ĠP rem
ĠT amil
ĠTh anks
ĠC GD
Ġre new
Ġcoord inately
ĠR RS
ĠB all
ĠAll er
if orm
cl eral
Ġcycl oprop
Ġsh ots
Ġcyt opathic
po ke
C omm
ĠHy al
isc ible
trac ing
Ġar med
Ġmol t
PV L
Ġconst ant
Ã© qu
o R
Ġbios pec
Ġt aste
Ġpro pose
Ġtonsill itis
ĠD istingu
Tr kB
Ġreal ized
Ġto ols
6 65
ĠF ixation
Ġs oman
Ġbu ff
Ġchallen ges
and ong
ov ora
Ġm o
ĠRA NK
Ġeffic ient
ĠNe ighbor
M ost
Ġstiff er
or ation
m imetic
if ies
d ers
Ġme ib
Ġcommun ication
th ym
Ġfl ood
Ġl apa
Ġconsequ ences
Ġexcell ent
Ġany way
Ġnec k
Ġinf il
ig g
Ġh ospitals
h abil
ĠG M
ran ial
ĠTh ank
Ġreconstruc tion
ĠP b
Ġ iron
Ġextrac ted
Ġlig ament
Ġev olution
ign ific
ĠC op
tw itter
ĠGra de
Ġ9 5
Ġnan ow
Ġrelationship s
ad el
ĠYou ng
Ġhyper inten
Ġpropos al
Ġdent ine
ay ers
an amycin
uild ing
Ġgro ss
ĠH ot
Ġre vascular
OR E
Ġab ductor
c os
ly b
ĠLDL T
Ġcoll abor
ĠK d
rig id
P G
instit utional
ĠL ett
ax y
Ġfa eces
ĠM PT
Ġknow ing
E NT
N ICU
Ġcra bs
Ġsupport s
ĠNe ph
ĠI MR
ow ed
ĠB PV
Ġcontrol s
ĠStatis tics
Ġnormal izing
Ġmere ly
ro up
Ġdop ed
um er
Ġextra hepatic
Ġtax onomy
Ġath let
Ġhypoglyc aemia
Ġf ashion
p ath
b umin
Ġg ift
Ġpromo tion
Ġzebra fish
Ġer a
AN D
Ġkind s
ĠKore an
ex posed
Ġleg it
Ġpre vents
Ġrecons tit
ul ous
rag ue
Ġess entially
Ġthe rap
Ġpa ediatric
n ic
ator y
on ical
Ġsuff ered
Ġh ur
si ze
Ġprom ise
ĠW HO
ĠB MT
Ġex cess
A Es
Ġover w
tiv ation
enh ancing
Ġpr ime
Ġaw areness
umb ens
CA S
ĠH ouston
Ġr umin
er ry
Ġcase in
ĠM s
Ġhome ostatic
R S
Ġver apamil
Ġaten olol
201 2
Ġn ur
Ġappend age
Ġst ores
Ġneuropsych iatric
ĠV alsalva
ĠO lymp
Ġimmun oprecipitation
ym met
Ġj ourney
Ġdom inance
k ines
Al though
hy brid
S ub
ĠE duc
ĠCh apter
Ġrequest s
Ġconsum ers
Ġt iny
ĠP aren
Ġis ol
T GF
ĠF air
13 0
b a
Ġprop ofol
ĠY OU
Ġin tim
o up
Ġcr ash
Ġall ogeneic
os ensory
ce ler
Ġpap illary
Ġure ter
ĠAc ademic
Ġemot ional
arg inine
Ġaccel eration
Ġnit rop
Ġgood s
rup tion
Ġelect ed
Ġhyp ocal
en na
Ġmod er
cop ic
ĠLin ux
Ġcr iter
Ġtendin opathy
Ġbl ocks
Ġis land
ĠSoc iety
ĠCon centr
Ġelect ions
Ġbroad cast
Ġche ap
Ġn ations
Ġse asons
o tion
4 00
Ġwas te
ĠS at
Ġfield s
Ġdis use
em ploy
otyp al
Ġprof ile
Ġmodul ator
Ġvaccine es
Ġauth ors
ti d
ĠRN ase
derm ally
AL L
Ġs low
Ġan aphyl
ĠT HI
ĠG ra
Ġdep endent
ĠLong itudinal
Ġmo ved
fe brile
w est
un saturated
ĠNAD H
Ġperturb ing
ĠT y
Ġs igma
ib rio
H ispanic
hu ang
Ġdeath s
Ġintra vascular
ĠAp plication
Ġonc ologists
mon omethyl
Ġv acc
Ġc ys
Ġinher itance
Ð¸Ð ¼
Ġcl av
ales e
Ġfor med
Ġir r
Ġpost traumatic
Ð°Ð ¼
athe cally
Ġd u
Ġaqu ifers
Ġon going
Ġdifferenti ally
ĠMuslim s
Ġvac cines
el f
os yl
ig ure
Ġbi ofil
Ġass ume
em ographic
ĠUkrain e
w ater
Ġco ast
Ġvot ed
Ġoscill ations
g or
Ġsuff iciently
ĠA S
ĠC CR
ĠMich igan
Ġg old
trans plant
az a
Ġlapa roscopic
H UV
ĠAr m
Ġconcom itant
n M
i ro
Ġin tric
Ġf lex
Ġdrop ped
as ters
' '
Ø§ ÙĨ
Ġwel come
ar l
fur yl
Ġloc ations
k olin
ig ation
rac tory
her d
ĠF il
Ġme peridine
Ġbu ying
Ġ19 83
ĠCoch ran
Ġarch itect
ocyan ate
BR EF
Ġhard er
Ġnephro ureterectomy
ĠC ub
hum oral
Ġinter face
Ġco le
Ġrestaur ant
Ġald ol
Ġdisco ver
Ġgynec ologists
ĠE CoG
Ġex ceed
Ġtribut aries
Ġmy oma
Ġfav our
Ġoxidative ly
ger y
Ġpuer arin
Ġd uty
accel erated
Ġp itch
ĠDR G
P ase
ad or
S OM
ĠM ach
Ġdilemm a
t une
b oy
Ġdi visions
Ġre pos
Ġs nee
Ġrespond ed
ĠNH E
Ġdec is
ys ing
Ġext ended
Ġpre ventive
ĠAD R
ĠOb taining
her s
Ġangi otensin
Ġcyst athionine
M any
Ġocc urrence
Ġpro mp
Ġabscess us
ra id
Ã¨ me
if er
ĠIn s
Ġagon ist
S er
Ġmonit ored
Ġgl auc
Ġmed ium
se lec
s he
ĠS ports
Ġcr yp
Ġmag azine
Ġven ography
ut ation
ĠHM GA
Ġlim its
P FS
Ġantin uclear
ĠG all
Ġasym met
Ġpro lyl
Ġex ternal
omy cin
Ġcons ented
Ġmes odermal
raz il
Ġdifferenti al
Ð¸ Ð
Ġdistrac tor
Ġillustr ation
Ġyoung er
B V
en viron
T GA
t le
Ġprol ong
ĠUni versity
Ġsafe gu
Ġrem ind
ogni tive
Ġnanop artic
Ġsper m
ĠC ON
Ġimmedi ate
Ġh idden
Ġvol unte
Ġfol ic
Ġsim pl
ĠC urrent
til led
od cast
abil ities
ogen icity
Ġex pres
Ġph ase
d r
Ġ ul
Ġpl ot
Ġexp osure
li oma
R I
)] .
og rap
Ġlos s
ĠV TE
v in
Ġst rep
ind ole
an ish
Ġfor sk
ĠAc ad
ĠEng ine
Ġsarc omas
Ġexp ansion
ĠP ay
Y our
Ġpus hed
ĠE ll
ĠHe ad
Ġmarket ing
i aceae
ĠA C
k et
Ġh its
Ġg ro
stit ution
ĠA ge
Ġhum ic
ĠSc ot
AL I
] [
Ġcorrec ts
Ġst im
Ġaddi tives
Ġi Phone
ex ual
Ī Ĵ
ter ies
Ġn arrow
Ġhem ostasis
ĠGet ty
Ġbas olateral
ĠTur key
Ġneuro inflammation
Ġperfect ly
toc opherol
Ġcat abolism
Ġen able
ĠB rad
ut ch
Ġcol d
thal amic
Ġprec ise
Ġpolym eric
tet ram
Ġreg ime
Ġdissem inated
Ġacromegal y
Ġsh if
lim iting
Ġmicro plastics
Ġcomp ens
Ġrec urrences
g un
stim ulated
d iv
Ġch osen
ĠK en
Ġp sor
An y
Ġmari juana
Ġtre es
Ġrecomm ended
ĠR en
u able
Ġmicrof ilar
ĠH T
Ġmacrol ides
F ollow
Ġchain s
Ġsynapt ophysin
E G
Ġmicrocirc ulatory
ĠH and
ĠOrganis ation
ĠK enn
Ġcarb oxy
Ġarg uments
Ġsyn apse
Ġex ists
Ġnig ra
Ġprote oglycan
Ġb ike
Ġhypoth al
ĠCons erv
Ġbre aking
ĠG ar
Ġc razy
Ġvirt ual
ay lor
ix el
ion ized
Ġ19 80
Ðº ÑĤ
Ġper mission
Ġcyt ology
Na Cl
ĠSer ies
èĤ ¿
Ġless ened
Ġconsum er
any lyl
Ġclose ly
Ġmy ocytes
Ġechocardi ograms
c alled
ensi le
Ġtume faciens
Ġ5 4
ac ute
trac ted
G CT
Ġhop es
Ġcryst al
Ġhyd ration
Ġimmin ent
Ġar ray
Ġepiderm is
ĠC EC
ĠW in
rim ary
ĠLab our
over ies
Ġsp ons
Ġoesophag itis
ĠI re
A MS
Ġp ow
f rail
Ġread ers
og or
Ġemploy ment
Ġcreat ure
Ġresult ing
Ġaccur ate
Ġmom ents
Ġarg ued
Ġp ed
D uring
Ġ5 3
ĠT al
Ġs ought
Ġare al
Ġsuff ering
gin ate
Ġ icon
le e
Ġ( $
Ġresid ing
al ian
a ec
Ġcar pal
Â °
Ġde vice
Ġp ra
Ġbon us
re action
( "
P PAR
k o
f olate
Ġact ing
ĠO phthal
D E
an oid
f all
Ġd obutamine
Ġcompar ison
Ġsm ooth
Ġex amine
ĠN AS
u pp
ĠJose ph
ep ing
ĠT ake
ĠT NM
ĠM id
ĠPr P
Ġs ending
ĠCN V
f ast
Ġcomm ens
ur inary
ĠF all
A CC
Ġquanti le
Ġdeal ing
Ġdiges ted
us er
ĠOr gan
Ġsulf ated
C o
Ġd uc
Ġpro ves
Ġatt ached
Ġo verex
Ġvirul ence
Ġh unting
Ġse es
Ġtraum a
Ġproduc es
ĠStatis tical
% .
Ġobstruc tive
Ġtyp ical
Ġmicro ar
AR T
Ġfind s
ĠAs ia
ĠC ystic
um in
ĠC ore
ĠE nt
04 2
in ent
Ġrib avirin
u ce
ĠB HV
ĠBl ood
Ġeuth ymic
ĠN ever
Ġacclim atization
Ġem ails
Ġoxy hemoglobin
Ġhigh light
Ġoctogen arians
Ġconf ront
Ġpredic tors
ĠO ch
at us
G PS
ĠAt titude
ut ed
Ġc ari
ĠMicro biological
Ġun us
ĠAV N
Ġtop ic
pro gest
ĠAd am
te e
ĠHD C
Ġb le
av ig
SO CS
at i
Ġinhibit ory
Ġresid ent
ĠAntarc tica
Ġunder stood
went y
ĠO SA
S et
ome gal
st ruct
T P
Ġm ob
a a
ĠSt art
P GE
pect ed
ev olution
Ġmening es
se ll
Ġded icated
ĠC A
u an
Ġsong s
kin in
esc ription
Ġgran ular
Ġpenal ties
Ġte ch
p ran
M FA
Ġr ape
ĠCC K
ĠA UG
Ġas ide
Ġcaud al
Ġchick pea
Ġgr ant
os itis
ĠD LD
ĠEB SCO
Ġ5 6
ĠAlle le
Ġclamp s
s ub
Ġplac ed
Ġpassi vation
Ġarg ue
ene tic
Ġcont aining
de x
Ġsche dule
Ġliber al
Ġpublic ly
Ġheav ily
ĠU t
in er
ĠS ection
Ġmetat arsal
ĠC are
Ġcomp uters
Ġgra ve
we et
ĠAthe rosclerosis
Ġlyophil ized
l s
ath in
Ġphotovol ta
D is
chond ral
Ġad ditions
âĶ Ģ
ĠG ag
Ġcellular ity
M eyer
ĠF ollow
ĠTra ditionally
galact ose
P PC
B ack
Ġexperi ences
and rosterone
n NOS
ĠI T
Ġba ical
Ġneph rostomy
Ġb es
Ã¨ s
Ġathe rectomy
j i
Ġphosphatidyl serine
ĠØ¥ ÙĦÙī
ĠH it
Ġdise ased
ance ment
Ġfinanc ially
est ed
Ġnormot ensive
ĠRet inal
N BD
Ġevery body
Ġmicro f
n ally
ĠSw ed
character ized
Ġfem in
ul try
Ġfac ilities
ĠB CG
Ġcon ven
C omp
Ġelucid ated
ĠO S
ardi a
ĠW G
c ore
ro tic
ĠSS RI
Ġan x
Ġstructure d
spec ies
ov arian
Ġdiv ision
Q R
Ġautoanti bodies
Ġer adication
ĠNa F
ĠC am
ĠACT H
Ġmicro RNAs
c ured
ĠSt an
F GF
Ġprep ubertal
m ates
Ġinter individual
OA E
Ġexpl ore
Ġpolymer ases
Ġphot otherapy
prop ag
pl om
ĠCT Cs
ĠT AR
Ġsh ares
Ġsh unting
pl oad
an es
Ġide al
Ġb ring
et ers
ier arch
ĠB ase
ĠEnviron mental
Ġpl astic
ost aining
Ġdist inct
Ġcomp eti
R v
ĠNet work
Ġmeth ylation
oc olate
ĠSe attle
en tical
ĠÎ¼ L
Ġtrad ing
Ġanti gens
ĠAZ A
ens us
Ġinduc es
Ġsensiti zers
int end
Ġgra d
Q ALYs
Ġex hib
Ġacqui red
se ptic
Ġinit ially
Ġvari ant
Ġparasit ological
ĠF ood
Ġthous and
Ġh ams
ĠBus iness
act er
Ġpar agraph
Ġrough ly
Ġw ww
Ġcreat ive
ĠPE EP
ĠCon f
Ġsen ile
Ġconsum ption
Ġrest or
Ġfil ms
Ġb arri
R CC
ag an
Ġob tain
Ġt all
Ġt or
ĠA SCs
Ġacknow led
obacter ium
Ġros iglitazone
Ġg rown
Ġver tical
NA s
al o
ocript ine
K E
or ide
rophil ic
Ġ4 00
ĠM embrane
ĠQ A
end ers
Ġnanos he
ol uc
t aining
ac illin
iod ine
oper ating
U G
Ġden aturation
ĠBio informatics
Ġsu icide
Ġdi ast
erv ised
Ġwat ched
isting u
mit ting
ĠL ist
oglyc ans
oman dibular
al i
ĠI BS
nat ally
Ġaut ophosphorylation
re hens
PT H
Ġfl ushing
Ġsurround ing
Ġlec ithin
Ġp ip
Ġd ar
Ġf lying
Ġent h
ĠJ ava
CF s
di pine
ord an
st aining
ĠMD I
Ġserv ing
ç ¨
Ġaminoglyc osides
ĠCH I
in ations
ĠI di
ĠT ween
ĠG HR
p ost
Ġinform atics
ĠE vents
ĠA AS
Ġsh o
Ġref r
ĠS EP
but anol
ar ins
A v
ĠB enz
Ġmim etic
CC I
Ġj ail
ud al
Ġrepos itory
ĠFK BP
d ent
z y
r EF
Ã© c
pro ic
Ġ199 9
ĠS Cs
inf lu
Ġtrans endothelial
Ġ< /
(- /-
Ġtherm ogenesis
Ġabs cis
Ġliter ally
Ġconversion s
ĠS ir
Ġchrom atid
Ġexp osed
ĠA PE
ĠHep arin
Ġl ies
Ġlip oxygenase
ĠPP G
st ar
Ġavoid able
Ġb at
Ġmyel opathy
ĠInter val
Ġear ned
Ġpharm aceu
Ġne oin
ĠD ig
an il
p all
Ġspec ified
ĠUp per
ĠCI PN
ĠSe ason
Ġexcit ability
mu ir
Ġmy ths
Ġdeg rees
C NS
ĠM others
Ġrecogn ising
Don ald
triglycer id
ĠSp eed
Ġcent re
all er
atum umab
Ġsh aring
Ġneopl asms
Ġr TMS
Ġwin ter
Ġv aries
dri ed
ĠC O
se lective
Ġrec onc
C he
Ġh owever
Ġfron t
CP P
Ġ Î
Ġv iv
ti k
M P
Ġun w
Ġfew er
Ġgerm line
ĠM ir
Ġcontr act
Ġsomew here
ĠNa OCl
ĠK ey
iqu antel
Ġattack ed
Ġabstin ence
ĠK ir
otub erculosis
Ġdom ain
d il
pot ency
Ġstrong er
Ġpathw ay
Ġs GC
Ġ9 9
res pon
al ytic
Ġpen alty
Ġcaus ed
Ġpractical ity
I d
Sc ript
ost azol
Ġdecl ined
Ġun id
Ġne ck
ĠCS R
Ġfra ud
hab it
Ġcur rency
Ġhyper cholesterol
7 16
Ġr ising
otrop es
os ilicate
R C
Ġ6 77
ĠI DS
âĢ¦ âĢ¦
fem ale
Ã© rin
ĠEstab lish
H z
end othelial
Ġinstitutional ized
Ġt ab
Ġthermore gulatory
Ġtal ent
ocyt oma
Ġprepar atory
n am
in jected
Ġremin eral
ĠN BA
hen tic
Ġm CRC
Ġvill age
Ġanore xia
Ġsuppur ative
Ġleg s
Ġintroduc es
Ġal ve
Ġdi benz
ĠN ext
Ġhem angi
chlor inated
MD I
E d
Ġintr atumoral
Ġfibro in
Ġac id
ĠSO CS
ĠR II
Ġhydroper oxides
Ġhy d
Exper iment
olin ic
8 00
0 66
Ġinvol ving
ĠIm age
ĠBe fore
03 2
F l
V HD
Ġmorph ogenetic
Ġyes terday
Ġlo ok
oun ted
igra vid
S ource
ĠDiab etic
Ġv ortic
Ġterror ist
Ġsu p
Ġtenosyn ovitis
Ġsy nt
N SP
ĠSaud i
Ġw est
Ġr u
ĠT CC
b urg
Ġpre formed
Ġpo vidone
Ġvis ible
Ġman ia
Ġnon treated
Ġstru ck
Ġster ility
r ison
ĠB IS
Ġaw esome
nc RNAs
Ġd rawn
ĠCE CT
Ġansw ers
Ġlumb ric
ĠG irl
Ġdi lemm
ĠGera is
ĠR am
I CM
Ġthreat s
Ġelec tive
Ġdef eat
Ġtub ular
os it
Ġretic ulum
Ġthiaz olidined
Ġv ent
ĠT PH
ĠR SI
atur ally
Ġass ignment
ĠMMT V
ĠG abor
Americ an
Ġchar ges
end a
Ġundet ectable
Ġphot ocatal
ĠH oly
ĠAd oles
Ġr um
Ġl actic
% ,
reas ed
Ġb rac
c ase
ĠHist ory
sub stituted
ĠYou Tube
Ġpac em
Ġsit uations
T OF
oc ul
ĠD NA
S te
Ġsymp tom
Ġsa ved
Ġt ype
iz ures
It em
Ġe igh
ni e
Ġrec ip
Ġped iatricians
Ġmedi olateral
olog ist
Ġri v
Ġtherm ogenic
Ġfac ed
ul os
Ġpal pation
Ġel ig
Ġen l
Ġdrople t
O nce
ĠL i
u h
Ġmist ake
ĠDiv ision
ç µ
ĠB ell
Ġbreak point
ti z
Ġsympt oms
Â ®
Ġdom in
Ġfall ing
Ġend ing
as hes
Ġmat ches
ĠOn line
ĠB ilateral
Ġexplan ation
Ġphoto electron
Ġspro uting
D ef
il is
re in
Ġpost graduate
red it
ĠCon ditioned
Ġany more
ĠNZ B
ĠT otal
o tive
ĠF OR
ys es
us hed
Ġextre m
Ġcrystall izes
Ġlet ters
Ġacclim ation
Ġris ks
ĠSch iz
ĠO K
Ġreported ly
ysm ography
: \
tub erculosis
Ġpl ate
tet razolium
Ġsubject s
Ġmutagen icity
Ġattempt ed
Ġmy asthenia
if ier
ic osan
ian a
Ġunlike ly
Ġmo tions
ĠTh ough
Ġ= .
um a
Ġorb it
ĠIn vest
ĠExperim ental
ĠPr in
ic an
ĠD ar
ĠColor ado
bis phosphate
au g
Ġpoly propylene
il izumab
Ġve get
ph ox
a os
Ġvit ality
ri a
P TP
Ġshe l
Ġmark ed
Ġ( )
Ġquanti f
Ġsp r
p o
ĠFlu id
ĠL ink
Ġmon it
Ġdef e
Ġcoh ab
ĠJ r
po ol
Ġthem e
Ġreper cussion
Ġpass ion
Ġarsen ate
ĠP en
id zein
Ġinf o
gen erated
iz er
Ġcircum f
Ġsh it
ex pressed
ĠC ivil
Ġpro spec
ap se
ĠOn ce
c re
ĠHa em
Ġpo ly
ĠC admium
Ġcomp onent
ĠBrow nian
ĠChar les
ĠIre land
ĠWB RT
ĠPro v
8 12
Ġdo ctors
O Q
Ġgr anted
Ġp DNA
Ġpain t
Ġpyel oplasty
Ġhon or
Ġsolit ons
Ġsm oke
æĪĳ ä»¬
Ġpay ments
yl vian
Ġprim arily
met abolic
ople th
ĠKing dom
Ġpolymer ase
ĠAde qu
Ġstream line
r ich
Ġli ved
ĠNeo adjuvant
ate ll
tr ation
Ġwarr ant
Ġbrux ism
Ġde als
Ġpre requ
c M
Ġsched uled
Ġdestruc tive
vac rol
Ġfund amental
Ġmac rol
g ability
Ġprote in
Ġinser tion
Ġw el
Ġnewsp aper
ul monary
Ġcl ients
Ġbrachio cephalic
yth on
Ġtr is
Ġ12 50
ĠD ate
Ġom phal
h us
ĠMultin omial
ĠClus ters
Ġfeed back
oc omplex
Ġcic l
Ġstret ch
ĠBr istol
Medic are
Ġc ock
Ġnas olabial
allerg ens
Ġhot el
ocomp atible
Ġsuprac ondylar
9 48
ĠQue en
Ġenerge tic
ĠVa D
U FA
Ġsu gar
Ġdiscus sing
Ġrec order
ur sive
Ġcic atricial
Ġj u
vid in
Ġcar vacrol
ot ome
F RS
Ġmil k
med ian
rehen sive
01 01
ĠP BF
G vHD
Ġappro val
ti i
ĠK U
ves tibular
PR OM
ĠL ive
Ġradi us
Ġmacrom olecules
Gly cine
Ġend oglin
Ġequival ent
Ġsept a
Ġoss icular
ĠAl cal
ef ully
Ġaudi ometry
Ġoviduc tal
Ġins ert
ç ¼
ĠPsych ometric
z ona
G AB
Ġext ension
Ġn oreth
d ri
Ġdel amination
J ohn
methyl cytosine
Ġacc omp
Ġdiscontin uities
S m
ÑĢÐµÐ´ ÐµÐ»
ĠF und
Ġmon ocyt
ĠPaen ibacillus
Ġconst antly
Ġan ore
armaceu tical
ĠN l
Ġ` `
Ġarth rop
Ġgener ated
Ġlip osomal
ĠA ction
Ġclinical ly
ĠP sych
Ġg ran
ĠT ri
Ġfib ro
Ġrecogn ize
anc re
Ġv ary
ph a
te b
ĠR a
Ġb rain
d f
et ch
ĠAs ymptomatic
ĠSov iet
ĠAT C
Ġemphas ise
Tw o
Ġdiast ole
Ġnon canonical
Ġpattern s
Ġequilib ria
Ġfiss ures
Ġprof ession
Ġtetra hedral
ĠExperi ences
an ing
Ġan tic
Ġre activated
T ime
Ġal ignment
ĠEndomet rial
ĠL im
ord inated
ĠR PS
Ġcol ors
rec overy
ĠMRI s
ĠA z
Ġretin oid
Ġfove a
Ġbas ins
ĠT R
flu ores
oll agen
Ġhemic ell
Ġros ette
Ġinf ect
å® ļ
ĠM apping
Ġflat tening
Ġphen omen
Ġunf avourable
Ġhy g
Ġfru iting
Ġshe ll
Ġapo B
ĠP EA
ocal yx
Al so
op eptides
enc iÃ³n
Ġatl anto
Ġput s
agen ic
iod e
Ġdel ivery
Ġequ atorial
Ġs aus
ĠMat hematical
Ġbro wn
Ð° Ñĩ
vec tor
Ġsupr aspinatus
Ġprocess ing
ĠConser vative
Ġchem otherapeutics
ĠW F
Ġlight s
Ġmaxim um
Ġvol c
Ġcry ogenic
ess age
PD MS
Ġbab oon
ĠBro ok
Ġflagell in
Ø§Ø³ Øª
ĠA ud
Ġend onasal
Ġ3 87
l ation
ĠI so
quar ters
Ġadhe rens
Ġindust rial
Ġconclusive ly
L ike
o unced
ĠB razil
Ġthematic ally
rou s
synchron y
ES S
Ġac ini
ĠL uc
Ġtwo fold
ç± »
Ġsome how
Ġsa fer
ĠY b
ĠN SSI
Ġ8 5
Ġduoden um
ol ian
Ġcardi oplegia
ÑĢ Ð¾Ð¼
Ġpro port
Ġdetox ification
Ġdors omedial
Ġexcre tions
Ġpolit icians
Ġhem olytic
PM MA
Ġdigit onin
Ġindic ate
Ġtop ography
Ġspectr in
Ġtachyarrhythm ia
Ġh ole
tiv ational
Ġtechn iques
Ġsup rab
Ġcompet itive
ĠIg f
Ġph r
Ġv o
ist ent
ĠP gp
ĠD ream
Ġcamp us
Ġaspect s
m Abs
Ġhelp ful
Ġac ylation
Ġsh ield
Ġmod ality
iment o
or se
Ġphen otyping
ĠH ous
Ġtrig ger
Ġmacrom olecular
inf or
Ġgeneral ist
m al
ist ently
re vir
Ġ5 8
ore c
Ġ35 5
Ġt ort
ne tii
Ġperson ally
ĠOr g
Ġon ych
Ġt ag
Ġprot ozo
Ġec to
Ġhalogen ated
Ġkeep s
Ġher nia
Ġdiscontin ue
avoid ance
ĠV ideo
ĠQu antitative
Ġra mus
ativ istic
Ġben ch
Ġpath ologies
mic roscopic
Ġg ap
Ġflav on
Ġenc ompass
Ġadenovirus es
a ire
ĠS ocial
ĠA ms
Ġe ast
Ġline ages
sp A
Ġrec overy
acyl glycer
oguan idine
per ial
he lic
Ġperox ides
Ġprof it
Ġdermat ological
ra umatic
ĠM ic
Ġsteroid ogenic
radi al
Ġam per
Ġ5 7
Ġhaem at
ĠOrth opaedic
Ġmicroflu id
Ġpsychos tim
Ġcol on
Ġperoxid ation
Ġasparag ine
ĠHead ache
Ġstrong ly
por tive
Ġe icosan
aw areness
st yle
ari ly
Ġcarcin ogenesis
ĠAuth or
Ġquad rants
Ġalleg ations
+ /-
Ġins ect
ĠH Cs
Ġroten one
h an
Ġres our
Ġpsor iasis
ĠN Cs
fl anking
Ġrep orters
Ġprogn osis
Ġper ox
Ġemo tions
Ġtumorigen icity
ĠInhibit ors
j o
Ġacces sible
omyel itis
Ġham per
ĠN CD
r ine
res pective
ĠSe vere
Ġuncor rected
Ġun ivari
arg et
Ġinter acting
ir ium
Ġalk ylation
Ġc dc
and al
Ġre ceptor
b ir
ĠV TA
Ø ²
Ġ0 3
Ġap p
at ation
Ġfl ash
X A
obi us
tr ans
mul ti
Ġstr ict
Ġpark ing
ĠPak istan
Ġl i
Ġwe ird
Ġe valu
ĠE ric
Ġreg ions
ĠJ un
Ġint ellect
ĠW H
od ing
rib utes
up id
ĠT it
Ġf inger
or ia
Ġe lev
ĠF ield
Ġcon clusion
Ġprob ed
; ;
ĠAdoles cents
Ġfeel ings
ĠM EG
Ġext ensive
Ġm ixed
Ġne uro
v y
Ġhar ass
aren tal
ĠC irc
ou ch
Ġterrit ory
Ġsuccess fully
Ġhair pin
M ar
Ġpharmac ist
Ġing red
Ġbi ocompatible
Ġpa rous
Ġoverw hel
Ġf uc
IV IG
Ġl ayer
ren orphine
Ġdispl acing
V iew
Ġnemat odes
ĠPK B
Ġall ies
hel ical
Ġimid azolium
ill ance
Ġsp ore
ĠReproduc ibility
ĠTh ree
ot echnology
us tice
Ġb unch
ĠM Äģori
Ġnorm ally
Ġintra gas
Ġnet works
ĠMeth otrexate
Ġsac r
ĠC IA
ĠSt andard
b les
ad ap
Ġch ose
SP R
Ġopp onents
ten ding
to ok
Ġregard less
Ġs ludge
Ġsh rim
Ġfr anch
eff icacy
Ġhepat otoxicity
Ġpre f
Ġtrim ester
ĠP o
en sive
Ġpar athyroid
Ġbr idge
oc atal
ann a
ĠSil ver
Ġnavig ate
Ġw age
R Î±
p age
Ġf MLP
ri or
ch isis
Ġhaem o
Ġrad ical
ogran in
ĠMg SO
ĠL ittle
Ġabl ations
Ġman ip
hair pin
Ġsecret ary
Ġradi o
qu il
Ġg ang
ĠL CM
D R
Ġstere ological
F A
Ġexam ple
ĠSTAT A
Ġdec ent
Ġinequ ity
ĠSp irit
Tf R
Ġun cle
ayas u
ĠDevelop ment
Ġinvest ors
Ġanti s
Ġwall s
Ġoxid ized
Ġpub lish
Ġgener ate
tw in
iss ions
ĠGAG s
c ar
ĠL id
Ġprom ote
isp anic
Ġcut ting
Ġche st
Ð½Ñĭ Ñħ
Ġdrink ing
Ġcollect ed
Ġequi valent
Ġ7 2
Ġhop ing
Ġem br
gor ith
Ġwar ned
Ġinstruct ions
O G
ĠD id
Ġstret ching
ĠAg ency
Ġg ear
tic le
Ġcritic ism
ĠH IC
ĠF urther
ĠD DC
Ġut il
Ġ5 38
ann y
Ġcyt omorph
R ed
ĠSC NT
Ġcoun sel
Ġun ifying
Ġfertil izing
ĠAs ian
Ġextra vascular
estim ation
Ġredu ction
osyl ceramide
Ġstear ate
p ool
æĸ °
os pecies
Ġteach ing
ĠP ichia
Ġl ata
Ġdeep ly
Ġ4 05
i y
Ġestim ates
Ġcho ices
Ġperman ent
oph aryngeal
in em
ke l
Ġf asc
p se
f ile
ĠL ow
ĠP erson
Ġt ournament
st al
Ġm el
U ST
ĠR ay
az i
Ġble aching
V al
ĠHist ologic
Ġdirec tives
Ġcont ained
ĠTran si
Ġcap ped
ĠH olly
Ã ħ
Ġpap ules
Ġw ake
0 63
Ġreve al
Ġnanoclus ters
Ġprocess es
ĠIC E
ĠIS IS
Ġb el
Ġ0 9
Ġk ey
Ġbl ind
Ġach iral
Ġste el
ĠM g
PL s
ĠB ad
Ġo uter
Ġsup ram
Ġtwin ning
Ġcare fully
Ġorth opedic
institutional ized
app y
agg reg
ĠSJ S
ro it
ĠScandina vian
Ġg aming
Ġhous es
Ġmay s
ĠC oll
ĠM aterials
Ġtr uck
ĠImp air
er m
ar res
ĠCor rel
Ġsc ored
unc tions
ĠAst rag
Ġocc as
Ġa min
defin ition
ret urn
ĠQuestionnai re
Ġe fect
b ound
Ġtetrap le
v ar
Ġan tiv
Ġsh arp
Ġaf raid
ti zing
ĠE X
ĠQ OL
am ber
ust ered
Ġsmok ed
c ific
ron tal
Ġsche me
ĠAc ute
N C
ech anical
ĠPol it
Ġdecl ine
Ġ199 8
Ġpus hing
Ġposs ession
Ġpriv ile
Ġteacher s
Ġy ield
H A
ĠDav is
it led
#### ####
Ġr ig
ĠD aniel
ĠIn stit
ac on
Ġh ide
oprop anol
ut en
opl acental
Ġcolle agues
Ġpul led
Ġprin ciples
Ġobtain able
Ġl oud
nitroso urea
Ġs in
ĠA IV
ĠDem on
un ted
Ġst one
ĠS ex
Ġ0 2
X R
ĠMean while
Ġt aught
fl ap
Ġter rible
Ġatom ically
Ġst uck
ĠPol icy
te en
Ġimplement ation
Ġs light
ĠB BC
ac char
ĠAP I
Ġwhe el
all as
Ġaut onomous
Ġch ampions
ĠH Cl
ol ars
ig inal
play er
Ġrepeated ly
ĠSt ill
Ġinstrument ation
Ġlik es
of requency
ast y
es ter
ĠCath olic
radi ol
R L
unction al
0 74
Ġb ath
Ġidenti ty
b right
Ġno ise
Ġgest ational
RT s
t itle
Ġsyn erg
Ġhierarch ically
Ġn orthern
æ¤ į
P art
re acting
Ġmag n
Ġf ab
ĠAs h
Ġper ch
Ġdis pl
opro fen
ĠDe vices
Ġtick et
ĠpH i
Ġm urd
Ġcl erks
Ġalong side
oph or
ĠMus ic
Ġcataly ze
Ġmultic entric
Ġr iver
odom ain
prom azine
ĠSte el
enz ae
ĠSn ail
ĠC L
ĠEm b
Ġabut ment
ĠPl ayer
Ġcollis ion
ig orous
ĠM ult
ĠCombin ing
ampl itude
ow ing
ap sed
ĠS SD
ĠCon trover
re p
Ġmal t
Ġadip ogenesis
s ize
Ġo esophageal
ĠH ox
Ġt ur
ĠGeorg ia
isc al
T AC
ra ction
Ġchirop rac
Ġc able
Ġsi rolimus
Ġ5 9
Ġspl anch
Ġw ins
ari ties
Ġchym otrypsin
Ġup coming
Ġat en
Ġsurv ive
bi otin
Ġapproxim ations
Ġins pired
ĠmE q
y rid
ĠEduc ation
çłĶ ç©¶
m ild
ĠV AD
Ġstat istics
Ġquad riceps
ĠT echni
ĠRe productive
ĠF oot
Ġmetast as
Ġnatural istic
att rib
iam i
Ġlong itudinally
Ġglycosamin oglycans
avail ability
Ġy ellow
Ġterat ogenic
ĠP age
Ġtran st
. -
Ġlink ers
ĠH as
Ġover dose
I SS
Ġur ban
ex piratory
Ġa x
Ġbarri er
MA M
es sel
\ "
Ġquarter back
Ġreg ister
ĠLab or
ov sk
Ġab ilities
ĠF amily
Ġvar iable
Ġsw ine
ĠPr ice
ĠÐ ´
Ġcont em
ĠV AS
Ġth in
Ġpul sed
ĠE qu
acchar ide
d ata
art erectomy
Ġg otten
Ï ĩ
ĠIL C
Ġconst it
Ġgranul omas
Ġas ks
Ġt ail
Ġexc iting
ĠE ffect
ĠSp anish
Ġencour age
Ġsynap ses
ins on
ĠZ ealand
ati te
ĠA h
amin o
NT s
Ġcommit ment
im ethyl
Ġab normally
C S
Ġconform ations
electro de
Ġr ally
ar tic
Ġt readmill
ĠPr EP
Ġ: :
Ġsubs id
Ġsp in
Ġcholangiopancreat ography
Ġcapt ured
Ġpul se
IR F
201 8
Ġch ol
Ġp v
Ġinn oc
Ġre w
Ġalleged ly
Ġau xin
ocyt omas
ĠC ome
Ġoc clusal
Ġart ists
ĠHE K
ĠN umber
ĠCon cer
Ġelect ronic
Ġchem otactic
Ġlae vis
Ġreg ional
Ġsubstanti a
ĠMy o
ap es
Ġgl en
Ġenfor cement
Ġw ra
Ġconjunctiv al
ĠFV III
Ġmy th
Ġcarboxyl ase
pr ise
ip ar
ĠM iller
Ġpter yg
Ġpapill a
ĠC reat
electroly te
ĠEp isode
b ell
Ġdirect ed
Ġext ract
Ġs orry
Ġv ice
ag ger
Ġpig mentation
ĠSu pport
mus cle
Ġ6 6
ĠI ron
Ġsec tions
Ġwonder ful
dehy de
Ġg ra
N et
ion e
th iaz
E ng
Ġver teb
Ġmyel operoxidase
Ġsh ips
Ġend omet
Ð°ÑĨÐ¸ Ð¸
ik es
ib acter
ĠK evin
Î ·
it ar
er pine
Ġactiv ists
Ġh n
tr ue
othel in
ĠAri zona
Ġprofil ed
Ġvisual isation
ent h
CE NTRAL
ĠDes pite
ich lor
Ġst ayed
ĠS E
Ġmig ration
Ġ19 88
Ġgast rop
Ġha bit
ĠI ts
Ġsolub il
ern el
dans etron
Ġin qu
Q D
Ġab ortion
Ġv oid
Ġexpl icit
Ġadjunc t
Ġeng aged
S NPs
Ġang ry
Ġneurotox icity
Ġr ating
ĠÂµ g
Ġmicros por
Ġfr ag
crip tive
Ġcompression s
b ro
ps in
im plementation
ick ing
omegal ovirus
Ġscap ula
d ev
Ġpsychos ocial
Ġwor ried
Ġob ser
arb azine
Ġap artment
Ġeng end
ĠG T
fen idone
Ġest ate
Ġsweet eners
ĠConst itution
Ġsuperco iling
em on
ĠS now
Ġcount y
Ġdis ag
ĠStep hen
ĠNeu rop
Ġimm igrants
Ġelucid ation
w ind
e qui
ĠN ations
ĠReduc ed
imin ation
Ġfol ks
il ance
Ġelectrosp un
cal modulin
O ut
A po
hom ologous
Ġg all
ĠInter feron
ot rich
Ġtarget ed
tion nai
Ġprot oplasts
Ġst ead
Ġextr act
ĠParen tal
ĠB on
Ġasthm a
Ġal falfa
ĠL ib
Ġpro xim
ĠF luor
Ġinform ed
Ġ12 0
ch ain
Ġfib rin
idel ines
yp ical
or ough
Ġc aspase
Ġdri ven
Ġregular ly
Ġbas ket
Ġprinc iple
K P
oc ument
Ġst un
Ġelimin ating
ib ilities
ĠOnc ology
ĠRom an
ĠAb out
Ġal ert
ibr ill
Ġdemocr acy
Ġaller gen
Ġrepresent ed
Ġal umin
H S
Ġec t
ĠCD K
c ers
Ġf ores
p arent
hy d
Ġcontrib uting
Ar t
Ġvis ion
u ingly
p ack
Ġdi plom
ĠCa rotid
re ts
Ġpos th
ĠN O
rin ting
Ġcapt ure
Ġste eper
ĠAd v
Ġlev ator
Ħ ¢
Ġtrajec tory
Ġpancreatic oduodenectomy
Ġannounce ment
res olved
TRA IL
ĠL ear
ti a
ant agonist
Ġh ook
â Ħ
lys osomal
Ġpur s
com par
ĠS uch
carb onate
ĠC amer
b ils
Ġrefuge es
Ġinfarc ted
ĠV e
Ġpoly neuropathy
P ol
ĠLik ert
Ġrecogn ized
tem is
Ġvol vulus
l ib
Ġinterval s
d T
Ġchrom affin
Ġhad n
ur sion
Ġdefibrill ator
Ġunc lass
A ss
Ġpepti dase
Ġparox etine
Ġpil ot
Ġacryl ic
Ġex piration
us hing
Ġpl ating
ä½ İ
Ġreturn ing
ID DM
Ġtra il
ĠC SCs
ĠSt one
Ġanticonvuls ant
Ġrpo B
Ġrout ine
ä½ ĵ
Ġperist alsis
Ġcour ts
on ucle
Ġver tigo
Ġimmunolab eling
Ġdes per
Ġchemoat tractant
f ocal
Ġfriend ly
Ð» Ñı
ĠIt aly
son i
Ġdystroph in
Ġpl ed
Ġmis diagnosed
Ġspati o
Ġbreat h
ĠAlter ations
ĠOR s
Ġstud io
Ġvir t
Ġcontract ure
Ġhyp ov
N S
Ġv omiting
Ġdeline ation
Ġimp ressive
Ġunder lies
ĠAfghan istan
Ġmelan ocytes
Ġf ing
ĠTran sc
Ġich thy
Ġd ownt
Ġvi remia
ink ing
H CT
ĠR og
Ġsp ind
i ary
Ġhyd rophil
col or
Ġren in
se x
Ġumb ilical
ĠDel ayed
ar on
Ġf ault
ĠTN BC
ĠN ick
Ġdis posal
D own
ĠR ose
ĠS outhern
Ġstiff ening
X X
Ġm ercury
Ġnap us
is odes
fall s
ĠM FC
L ist
he pati
Ġanter o
6 00
Ġfol ded
hem orrhagic
Ġout come
ĠPro gn
dep osition
er r
Ġvoid ing
Ġexcit otoxic
Ġelse where
Ġgeneral ization
ĠCG M
Ġret ire
M CI
od opa
Ġp ounds
Ġlact ose
ĠP olic
ĠGl obal
ĠP CP
Ġcarb ox
Ð° Ñİ
Pe ople
otin ib
ĠP CT
ĠAnti oxidant
Ġcommun ications
Ġspur ious
Ġlo an
H NE
Ġrat io
ĠAD G
ĠEm pire
res ol
Ġg onna
ĠC rystal
Ġinv ent
ĠS SP
D F
Ġperce ive
ĠLes ion
Ġ19 70
on ym
ĠTr p
co enzyme
ĠComm on
ĠI CAM
ĠEV D
p at
c igaret
Ġginsen oside
Ġprom ised
OM e
iber cept
Ġd inner
Ġunsus pected
ĠH om
Ġbenz oic
Ġcreat es
Ġer up
ici Ã³n
Ġoper ate
ĠSA H
Ġobstac les
fluor odeoxyglucose
ver ty
Ġqu enching
ĠD etermin
Ġremod elling
ĠF reedom
ĠJ ordan
aus sian
Ġy olk
ĠRecom bin
T SA
et ime
Ġser ous
Ġantigen ically
Ġsust ain
ammon ium
Ġprop ionic
R eg
ĠScop us
Ġincred ible
Ġfore brain
Ġan odic
im a
ĠAmb ulatory
Ġwar rant
Ġm m
A tt
Ġlaw suit
Ġreview s
it ure
ĠS ource
l ights
ĠF ord
Ġ6 3
g roup
st ore
Ġfr act
Ġfeat ured
Ġfore ver
Ġpo verty
ĠP op
ĠC NN
az z
ab is
ach ing
Ġl aid
ĠSu pp
Ġfil ter
en a
ĠCommun ity
Ġcreat ures
u ction
ĠR oyal
Ġassoci ation
ĠCon nect
ĠBr ad
âĸ Ī
l ers
the re
Ġpotenti ated
ĠG i
Dan io
Ġval uable
i atic
ĠS askat
AC K
gar is
ĠG TR
ĠT aylor
Ġdeem ed
Ġbl unting
Ġl iquid
Ġbrid ging
Ġend odon
Ġpromot or
ĠAtt orney
Ġd ans
Ġmaxim ization
ĠCar l
g anglionic
ĠF inal
Ġint raindividual
ag a
ĠR FS
Ġmulti ples
ĠWil son
inj iang
Ġmen adione
B ecause
Ġtransp eptidase
ĠPa en
ĠProf essor
5 89
ethylen imine
ak a
Ġmyof ibrils
Ġan orec
Ġincred ibly
p rimary
Ġce ph
Ġsynd esm
r ance
ran ging
Ġanti rheumatic
Ġ(- /-)
! )
ket o
aff eren
Ġhypothal amo
R ef
is omers
ĠOcc urrence
s k
Ġcar acter
omegran ate
s emi
Ġsol utions
ale xin
P BA
ro sion
Ġatmosp here
Ġampl ifications
ĠF rozen
Ġbl ame
Ġribonucle otide
ap id
um es
Ġdegrad able
Ġcomplex ing
tig ht
ĠN ob
ĠÎ ©
Ġrele as
C A
met all
acetyl ene
um ps
Ġrat s
Ġcorrec tional
ĠEstim ating
r ical
Ġstric to
Ġcraniopharyngi oma
ĠPut in
Ġechocardi ography
contin uation
ĠD est
ĠN SCLC
ascorb ate
or ic
re ceptor
ĠE ucalyptus
ĠP A
Ġcytos olic
Ġrespect ively
Ġneuro tox
w an
Ġfif th
rom ycin
â Ħ¢
Ġeukary otic
ĠC ry
Ġgovern or
Ġcomparative ly
res ident
Ġpurch ased
Ġosteop ontin
Ġh ack
Ġbeha ved
Ġint ense
Ġsubf amilies
ob s
Ġtuberc ulin
Ġorig in
Ġsem an
Ġchem oprophylaxis
Ġdef ine
Ġthrombocyt openic
Ġcare ful
cop rotein
Ġper fluor
** *
def iciency
Ġshould er
NH G
Cl ick
d les
Ġt ied
Ġphot ocoagulation
Ġdest ruction
enh ancer
ou red
Ġno body
Ġh o
ĠEx per
Ġt ip
" ;
Ġneurop ath
Ġtechn ique
o ception
Ġj ur
Ġden om
ĠP ok
Ġoval e
b ow
Ġleg end
Ġneopl astic
Ġacc ord
Ġres piration
Ġbus y
ĠInt el
sl ope
Ġh ang
Ġch arging
ak i
Ġamphip athic
. ]
Ġre ti
Ġac nes
âĢĶâĢĶ âĢĶâĢĶ
S IL
Ġsur gery
Ġrep rodu
Ġun iform
Ġscen es
c ode
Ġ6 2
Ġbio activities
l isher
Ġcommerc ial
olip oma
ĠH ave
ĠTes ticular
ph ia
Ġagal actiae
Ġcry pt
ocol itis
ç§ ĳ
Ġrec on
NT ES
Ġsc ream
Ġadop ted
Ġsc ores
N e
ĠIt alian
ar abine
in cluding
B O
Ġindic ated
ĠBehavi oral
Ġent ertain
Ġs ocial
G u
mal ate
T ext
è¦ ģ
Ġgerm anium
i el
Ġsati vus
Ġtw enty
6 87
Ġeng age
ĠP LL
off s
ĠPac ific
m orbid
Ġsm ile
Ġinten tions
Ġperson nel
st roke
Ġto ler
Ġtun able
Ġdo ors
Ġpacient es
Ġt one
ys mal
Ġmach ines
st rain
Ġent ering
Ġre ceptive
Ġcalc ified
ten ance
ĠThe rapeutic
Ġmeg akary
C O
Ġd s
ai re
ĠJer sey
Ġin duc
Ġpoly phen
Ġexce eds
Ġfore st
ati tis
aro x
k nee
Ġhor se
but yrate
Ġvol untarily
Ġcompl aint
Ġrupture d
ogl uc
Ġtoxic ants
ĠSpr ing
ĠP CV
ĠM echanical
Ġhyd rops
y o
ature d
Ġo ch
ĠPl us
si RNA
Ġinter hemispheric
ed ing
ardi ac
Ġpherom one
Ġhyd ride
ĠRet urn
ul l
Ġherpes virus
Ġre intro
qu arters
ÐµÐ ·
ĠNi emann
ial s
ĠHeter ozygous
c ow
ĠCAC NA
Ġacad emic
åıĺ åĮĸ
Ġf ruit
ĠTeg ner
Ġ199 6
9 41
og ether
Ġinges tion
Ġw ine
Ġips ilateral
Ġpur su
Ġs tig
ĠSte ven
ypt oph
Ġlic ens
Ġdi aph
Wh o
Ġclot hes
re ction
Ġsqu ad
Ġst able
Ġr aw
z ens
St ar
ut ies
Ġpas sion
anc er
ĠVM H
Ġke ys
8 14
ĠM u
Ġdescrip tor
it ril
Ġcompl icated
benz ene
Ð°Ð» Ð¸Ð·
Ġf NIRS
ig er
Ġra m
ĠV EP
ĠTe xt
Ð½ Ð¾ÑģÑĤ
Ġp is
Ġabs or
ĠPar tial
Ġref ractoriness
Ġ6 8
Ġresid ed
Ġfun ny
Ġbiom edicine
Ġrel ief
Ä± ÅŁ
ĠL ew
K yoto
ĠC ook
Ġin activated
Ġch art
Ġdraw ing
G E
Ġmod ule
Ġas pects
ĠB ull
I LL
AP OE
Ġs alt
Ġaggreg ations
0000 0000
il le
B IA
Ġres ource
in eral
C MP
aw ay
Ġbl unted
ĠDec reases
adel phia
ĠAT CC
ril es
Ġthi ophene
ĠB ru
ater nary
Ġ6 7
Ġsome body
Ġinc ubation
Ġparticip ate
Ġro se
we red
Ġmus cle
Ġcons ent
reas t
Ġcontin uing
Ġs elf
ĠGuard ian
ĠOr der
reg on
ĠInstit ution
Ġre ar
ac os
Ġprov ision
Ġendomet rial
ĠA US
Ġlik ed
ĠS HAM
ri ent
ĠH CR
Ġb ra
ĠFe Cl
Tr ans
Ġnutraceu ticals
Ġmeet ings
9 77
Ġto x
os amide
Ġcon vent
ĠB MR
Ġaut o
ĠF ocused
Ġrec ording
cle aved
ĠSo ft
roph y
PT CA
00 1
Ġcollec tion
ath ion
Ġpractic able
ĠR oll
Ġcharacter is
Ġprogram ming
Ġp ic
Ġcytos keletal
Ġprov ed
Ġst ab
ĠA st
Ġca ption
ul ating
ĠAtt ack
Ġnew ly
Ġ199 7
f r
ĠSevent y
Ġdis cipl
ĠGree k
Ġed ition
ĠDo es
Ġequi vocal
ĠB ox
ch ro
if le
oid y
ĠA GS
ack et
ĠNe urons
Ġpass es
sal icylic
Ġgu est
Ġcoron a
J AK
Ġac celer
alsal va
Ġdimin ution
ĠSP M
it als
ĠF rank
ĠMeth ylation
U D
Ġsecond arily
Ġaut hent
ĠHR QL
ĠR est
ĠD CA
ov al
Ġdic lofenac
Ġenrol lees
t a
ong ru
Ġk r
u ine
p ulse
Ġarm or
Ðµ Ñĩ
ĠT own
ĠP PD
Ġcomp at
ĠK inase
Ġinc hes
Ġcytok inin
Des pite
ĠD HE
Ġass ign
Ġprote omes
he rent
Ġnanoc om
MT A
Ġprep are
Ġartif icial
ĠIV F
lac Z
ĠM eg
ox al
k V
oc key
op lex
Ġdep ends
ogen omic
Ġtrack s
ĠÐ¿ Ð¾Ð»
w atch
ov ari
Ġl ists
Ġprop ylene
ĠJ agged
ĠN orthern
ĠNP M
Ġal ter
Ġcycl ical
re c
ox id
ĠE astern
Ġcond em
Ġevery where
? '
Ġaff ili
Ġf ought
ĠPlate au
": {"
ĠVene zuel
Ġm ac
è ĳ
it arian
Ġsc ope
ĠA L
aw s
ar ms
Ġqu e
ĠB asal
Ġenjoy ed
ex traction
nes ota
F LD
Ġchalc ogen
Ġagg ressive
Ġaccel erating
control s
IT M
ĠSt ory
Ġd ramatic
ne urop
Ġherb icide
isomer ization
ĠI V
j unctiv
Ġdenti tion
Ġendem icity
Ġrec ipe
ĠAD L
ĠI PMN
Ġrare ly
Ġt aper
Ġph rase
ĠMed ical
endi x
val ue
Ġm ites
ang el
ay ing
omet hing
Ġsub section
Ġs outhern
Ġfrequ ency
re te
Ġspec t
roll ed
o ols
ult s
ĠN ic
Ġbeh alf
Ġsequ ence
ab et
Ġcontrovers ial
Ġcomp rom
Ġwork er
Ġfibr ill
Ġmain ly
Ġdi astolic
Ġsut ures
Ġal gorith
Ġl ifest
ĠM ajor
or ce
g ender
Ġorgan ized
ĠT PA
Ġf ake
otyp ed
et u
Ġconclud ed
ĠE D
ĠEx ec
Ġsub group
r age
Ġch ances
ber ry
ĠT MA
ĠTr ad
Ġcomp atibility
Ġconfig uration
ĠP he
Ġwithd raw
Ġmicro environment
Ġf ro
ud es
ĠBro ther
ĠH CV
ĠB rian
Ġtri es
Ġsam ples
90 4
Ġb id
is sion
nes see
ĠGold en
Ġprom isc
Ġphot ograph
Ġpuls atility
Ġpurposive ly
if est
ĠUpt ake
Ġideal ized
ary ophyll
ĠD O
Ġs oci
Ġsecretag ogue
ĠPar liament
omy el
ĠÐ¾ ÑĨÐµÐ½
******** ********
R em
Ġcont est
Ġsign ing
anis ation
p x
Ġdisturb s
ĠZ eal
Ġphenyl ketonuria
âĶĢ âĶĢ
Ġcovers lip
E ar
Ġex it
Be fore
Ġphosph odies
ĠCor por
Ġamelior ate
n ull
Ġneovascular ization
mon th
ĠA Es
Ġrac ial
Ġprovid ing
Ġtr ach
ott ed
pres ented
ĠV eg
ĠRe uters
Ġsw ord
ps on
ĠRom ney
educ ational
a ed
Ġosteocl astic
Ġt rib
Ġautoreg ressive
Ġin ner
Ġocc ipital
Ġamper ometric
Ġprot ocol
Ġc opro
ĠB i
ĠFraction al
ĠM iami
k ine
ever al
mod ulating
p ress
Ġsh ipping
ĠAm endment
Ġmicro V
ĠHow ard
Ġmid foot
con nect
iform e
ĠD isc
Ġimmer sive
ĠJ ac
Ġcation ic
Ġd ess
iam ond
Ġl on
Ġorchi ectomy
ĠThere fore
Ġh ands
om ation
s es
Ġcor respon
Ġlum inal
ĠPT T
ĠPrin cess
Ġh yp
Ġal coh
ĠY oung
ĠMg Cl
ĠUS B
Ġalcoh olic
Ġmushroom s
ĠAn th
Ġprecon ception
Ġsurve illance
Ġap olog
Ġop tions
Ġ6 1
ow a
Ġf ulf
Ġextr as
j s
pl oid
Ġl uck
ust ed
ĠÂ §
n i
Ġant icip
em an
Ġwin ner
Ġsil ver
ll a
Ġ ips
ic ity
ĠF ran
Ġunus ual
Ġcom mun
Ġcr ack
Ġt ies
e z
27 80
Ġpract ical
ĠP ulmonary
t ress
Ġprov ince
ĠZ P
ĠPl ace
erc etin
Ġrid ges
Ġprior ity
Ġmicrosp heres
d ithi
IC E
Ġphysi ologic
ĠAc tivation
ha phy
Ġdescrib es
Ġmedi ator
Ñ İ
Ġmul titude
Ġfavour ing
Ġbr anch
ĠRh o
Ġtrans plants
Ġemb edding
F orm
Ġamygdal a
Ġcol lis
ask a
Ġbi otin
if luor
miss ions
ĠCF U
Ġerythemat osus
ĠM MT
b i
ution al
Ġvel ocities
es tion
Ġp orn
Ġhel ical
ev oked
eti tion
ĠTur k
Ġnatri uretic
ĠSt able
Ġent hus
Ġpro poses
Ġs aw
Ġnanoshe ets
Ġf ighters
Ġpolyp eptides
Ġs orb
ers inia
Ġ0 8
Ġhydrochlor ide
Ġmyelodys plastic
ĠDet roit
cl amp
Ġo der
Ġfound ation
Ġab iraterone
av id
Ġjour nals
Ġmetabol izers
A re
Ġjud gment
cl ing
Ġevalu able
Ġsol ve
Ġhypercholesterol aemia
ĠDes ign
ĠS tric
W here
hes is
ĠT ro
a fter
ĠPath way
Ġne utral
er ating
Ġutil iz
ĠPalestin ian
ĠMark ed
ĠHolly wood
u vastatin
Ġadv is
ÑĮ ÑĤ
ĠN on
prol iferation
y es
ati gue
Ġmetast able
ol is
Ġinterf ace
Ġir relevant
ns ylv
Ġrep utation
op rophylaxis
Ġkerat ocon
per fused
Ġsm ell
Ä± n
x anthine
Ġpil us
Ġb read
Ġmicro dialysis
ent en
Ġmer ist
ĠB ul
Ġd imensional
Ġop tics
Ġp A
enedi amin
ĠBe ach
ĠS ERS
Ġduplic ate
Ġheterod imers
an ols
Ġclaim ing
ym b
Ġcalc ulus
Ġgen etic
ĠChem otherapy
Ġcrow ds
Ġtechn ologies
Ġbor tezomib
itamin osis
Ġupgr ade
Ġnutri tional
Ġde aminase
Ġmena quinone
row s
umul ative
ĠR atio
Ġdext romethorphan
Ġdevelop er
Ġmitochond ria
Ġlact ating
Ġfunctional ities
a emias
ĠJ osh
ĠAs n
Ġ6 90
ĠDis ney
Ġmul atta
erv ed
Ġmes enter
ip al
UTR s
Ġun ex
ÐµÐº Ñģ
Ġbare ly
tic ular
Ġhast a
t hen
Ġmyc orrhizal
Ġricketts ial
ĠP ub
Ġsuc rase
Ġill ness
py ramidal
et ary
ĠB al
Ġsugges tive
Ġp atch
Ġshe ath
Ġbut t
Ġst upid
tr yptophan
ĠD og
co lemm
ĠD allas
asi tic
f ront
ant al
ie ce
ure t
Ġprot ests
Ġbot tle
Ġch at
ĠE wing
oen ix
Ġinf ratentorial
Ġw ing
lu y
Ġpar liament
Ð° ÑĢ
Ġconve ying
Ġ7 7
odex trin
Ġcow pea
ose xual
Ġc utaneous
ĠC LL
Ġre nder
Ġphen otypic
indi vidual
Ġimmun ogenic
pt ions
ip itation
Ġsupernat ant
ock s
ĠCo ast
Ġvolum es
s econd
os a
Ġc umulative
onad al
ĠG reg
h op
ĠMan agement
p attern
Ġbit coin
Ġmal formation
Ġne vus
Ġrec over
Ġnorm ot
ĠF OL
Ġincor por
Ġparen teral
Ġneur oradi
or ne
ĠR BC
ĠD HT
ĠUs ing
Ġsub optimal
MD s
Ġpre ced
Ġphotos ynthetic
Ġwet ting
Ġthreat ened
Ġco operation
Ġphyl um
Ġspirit ual
Ġco operative
Ġburg dorferi
Ġsub con
ĠE vent
ĠTiss ue
ĠF red
yr rol
ores pon
Ġadvert ising
Ġbe ha
Ġbas ilar
Ġimprove ments
Ġpep sin
ĠC ustom
Ġsus pected
Ġer rors
Ġsens itive
ĠN avy
Ġcre am
L ook
Ġex clusive
Ġcomp rehens
Ġde leg
Ġcon ce
Ġrem em
Ġconver t
Ġstruct ures
ĠO X
Ġst ored
N D
Ġ1 000
fer ase
U P
Ġret in
ĠB udd
A F
w oman
ĠAcad emy
ð Ł
Ġexpon entially
se a
Ġchim panze
Ġtem porary
Ġpred ation
Ab out
es ters
Ġtick ets
Ġposs ess
in ch
o z
Ġl a
Ġsensi tive
Ġcontract s
Ġcl us
Ġun p
Ġc ig
ĠC enter
ĠK at
Ġw ilt
ult ural
Ġfib roma
as m
ĠA BL
Ġmount ain
standard ised
ĠCapt ain
C yp
St ep
Ġt ors
m aking
des orption
ĠSp ain
Ġmedi ate
ĠGT N
Ġequ ally
Ġmob ile
Ġl ands
at ers
ĠMT D
Ġreject ed
Ġtur tle
er a
F GFR
im m
Ġcy tidine
ri x
ras tim
C D
os tic
Ġnon malignant
Ġtrans action
Ġt rain
g ener
Ġheterogeneous ly
less ly
Ð¾ÑĢ Ð¼
Ġ| |
Ġc os
ĠHen ry
Ġcul tivation
Ġprov isions
Ġg ained
Ġdirect ory
Ġra ising
ĠS ep
ol en
ond er
Ġcon sole
in st
Ġb om
Ġunc ertain
1 50
ock ing
Ġmeas ured
Ġpl ain
Ġse ats
Ġdisrup t
Ġd ict
S L
par ag
af e
Ġzoon otic
Ġest imate
e valu
obut yric
iz on
at hered
Ġcontribut ed
Ġep isodes
omm od
G r
AN T
Ġc adherin
Ġ6 9
G ener
Ġep ig
Ġ2 50
Ġconst rain
vious ly
rog en
Ġterror ism
Ġmove ments
ent le
oun ce
ĠS oul
Ġpre v
ĠT able
[ (
act s
Ġartic ulation
Ġangi ograms
ri ors
Ġoxid ants
p rit
t ab
hospital ization
Ġsuff er
rag lutide
Ġn erv
Ġmain stream
ĠW olf
Ġfranch ise
b at
Ġdem ands
Ġag enda
Ġdo zen
ĠEl derly
Ġclin ical
Ġsol di
Ġmig rain
iz ard
CF U
ĠO p
ul ant
t d
Ġvis ited
ĠPer haps
Ġact or
ameth rin
Ġde lic
taz obactam
Ġcont ribute
Ġlip ocalin
Ġin ject
ĠE s
ac co
ĠÐ °
Ġlist ening
Ġth ym
Ġcon gress
n aphth
epend ent
Ġprem ium
Ġ7 6
un ions
ĠIr ish
adi ly
ĠC ounting
Ġass igned
def ining
ĠPh ys
A NS
Ġworld wide
Ġnarr ative
ot ype
m ont
Ġdec rease
b ase
ĠB owl
ĠAdminist ration
Ġrel ation
ĠE V
C P
Ġco vers
Ġre pro
Ġ7 8
ro ke
Ġpharmac ology
Ġcert ific
ici ans
Ġinstruc tions
Ġgr ass
Ġfacil itation
Ġ0 4
Ġde formation
mes enchymal
pir acy
opl ast
d welling
ir a
Ġor ders
ro in
Ġengine ering
Ġsubpop ulation
ĠM ars
Ġexpression s
Ġun employ
ĠIC U
Ġect odermal
ĠFore ign
ĠIdentif ying
G el
st ract
oselec tivity
b ronch
Ġv en
ĠF CR
Ġst eal
Ġre as
id osis
Ġrepl ied
ĠI SH
Ġult imate
Ġhepatocarcin ogenesis
Ġtit les
X a
d ated
ĠP m
Ġj oy
Ġcon vic
rolog ist
a us
reg istration
co vered
Ġhy per
Ġc roc
Ġdys arth
ak u
Ġn ormal
Ġinv ad
bi opsy
Ġoffic ially
Ġneuroplastic ity
ĠPro duct
Ġb iaxial
Ġdifficult y
ang li
per or
ynt hetic
Ġresult ed
rib ed
l ink
Ġpath ologist
wh o
Ġup per
IL I
~~ ~~
r imin
Ġsup p
osup pressive
ĠSpe ed
ox ine
ĠV iet
Ġfiss ure
W ind
Ġpoly nomial
ĠBar ack
Ġrestrict ions
ĠSh are
Ġ199 5
ition ally
Ġbeaut y
op t
Ġm aps
Ġresul t
ĠC R
ĠN ation
Ġre stric
ĠCru z
Ġs pon
W ill
Ġdo uble
Ġelectric ity
Ġsp e
Ġor g
Ġb urd
Ġviol ation
Ġus age
Ġrheumat ology
Ġper mit
Ġsurge on
Ġlog MAR
ĠCh ron
a por
ĠP WS
ĠF ant
ĠF BS
Ġmel il
Ġn aturally
Ġproportion ally
ĠÑģ Ð¾
Ġ0 7
ĠPFAS s
Ġth rown
symptom s
ĠAw oken
Ġal ien
ĠHer o
Ġquantif iable
ĠK ent
Ġbioge ochemical
ĠR ick
Ġspondyl olisthesis
ri ke
ol izumab
Ġp ace
Ġscreening s
}, {"
rost omy
G L
Ġn id
Ġpo ison
adm ium
em al
ĠT ower
Ġhab its
Ġprogram mable
Ġform al
Ġscenari o
al ysis
Ġag ar
Ġgen uine
Ġdiffic ult
Ġfib res
Ġk il
a ver
Ġhyper activity
Ġproced ure
ĠD PP
om inant
ĠPro p
il um
ogen in
intend o
Ġlas ers
ĠM ain
cor tisone
as ant
Ġtr ained
Ġelong ated
G ame
ĠSw it
ĠL oad
ĠM A
Ġcru cial
Ġle ts
ĠF R
Ġch ampion
ĠL atin
1 01
lam y
ĠCon ference
Ġwrit ers
roscop e
Ġconnect ions
Ġo kay
ir ms
ĠR and
Ġenc ounter
ĠB uff
Ġachie ved
ĠR BE
Ġche cks
isc ons
Ġassist ant
Ġwhen ever
Ġchlamy dial
ĠA ccess
AB L
Ġend oderm
ĠU r
Ġphot olysis
b in
Ġneuropath ology
Ġcl ock
Ġaut ocor
is p
op re
Ġvar iceal
op her
ĠL N
Ġlocal ities
Ġb orrow
ram ine
S IR
cit rate
Ġm ad
ĠBehavi oural
Ġperson ality
rospor a
D MP
on ly
Ġatom s
e astern
Ġimplant ations
IS T
ĠI OP
æ ·
Ġampl ifies
ab ama
Ġmy osin
Ġred o
otrop ium
Ġg ains
ĠT CR
pid em
Ġcommon ly
âĭ ¯
p ulsed
Ġter r
Ġasymmet ry
ĠSIGNIFICA NCE
Ġhyp ot
ĠEB US
Ġre ly
Ġdist inc
Ġt iss
o ti
iscons in
Ġrid ic
f unction
ĠO regon
Ġaff ected
Ġun com
r ating
el and
ĠN C
Ġm oon
ann on
Ġvulner able
ac ings
ut ive
af in
ÂłÂł ÂłÂł
Ġlabor ious
ĠRad io
Ġenfer med
Ġw estern
se ct
Ġfacil ities
ĠT ony
Ġocc urs
ĠO s
ĠH on
in di
Ã Ń
Ġconduc ting
Ġv essel
Ġbiomark er
ĠBAL B
ĠScot land
Ġk ary
Ġdiscrim ination
ĠR OC
ith in
Ġsubsequ ent
AF M
st ring
Ġutil ised
Ġfant asy
ĠSh adow
Ġtest im
W E
it i
Ġall op
r as
as sion
Ġbo at
ag ens
Ġmar ks
ex ercise
SR s
Ġord inary
Ġhist ochemical
ĠTra de
Ġre n
si ans
ach lor
Ġrepresent ative
spec ially
Ġpet ition
Ġfr ac
Ġ7 3
Ġcarb achol
Ġad venture
Ġign ore
ĠPhil adelphia
Ġs IL
ĠS av
phal angeal
V P
Ġarth ropathy
ĠK ras
Ġfact ory
gi ate
olone y
Ġt asks
s plic
cen tic
Ġdep ression
U SD
z ed
am age
................ ................
Ġmicro A
ĠSt orm
adi en
Ġc ogn
Hydro x
Ġelig ible
ĠB NP
instr ument
Ġredu cing
Ġbios phere
v ia
ĠPoly clonal
Ġ0 5
ische ri
Ġstri king
Ġnew sp
am ectin
Ġdoll ar
Ġbil irubin
imod ipine
entr ation
h o
Ġstut tering
Ġg izzard
ĠBi P
O V
iel s
og amy
Ġinstr ument
ti de
Ġcatal epsy
Ġphilosoph y
Ġfem oral
ier on
ĠMo ore
an al
ĠNeuros urgery
ĠA venue
op at
Ġrul ed
ĠC CF
ĠFr ont
ep tive
IN E
ĠG onad
ĠM ah
Ġvari abilities
Ġscen ario
ĠHyp oxic
ĠNAS A
pred ictive
Ġen orm
T ES
Ġdeb ut
Ġp eu
Ġte a
at ered
ĠEs ophag
T oday
xim um
ĠHoriz on
Ġabs ence
Ġtachyzo ites
S im
F IM
Ġh am
ad ox
Ġ ãĢ
le ep
Ġprotein uria
Ġper ig
Ġt ables
ĠO ryza
ĠHe art
ĠA cin
Ġnon white
M I
vas tigmine
K e
str uc
Ġpap illedema
re qu
Ġknock ing
Ġimmuno expression
V D
tain ed
Ġsial yl
Ġmelit ensis
m ap
Ġenl arge
ĠrHu EPO
Ġchair man
per ipheral
Ġtantal um
Ġp ump
Ġform id
ĠGmb H
Ġrapid ly
BD E
v i
Ġprac tic
HT N
Ġsubstant ial
E P
d es
Ġcor rec
ch ant
ili pp
ĠS anta
ri ers
ĠB Q
anche ster
ĠW OMAC
L oad
ĠPrec ise
ĠC ase
Ġsa ving
Ġ7 4
ĠH sp
ĠA FP
Ġ ly
er ning
oun ced
ĠMin nesota
ĠW as
Ġstrept ococcal
Ġrec ru
Ġser ially
Ġassess ment
Ġder ange
ĠB ron
Ġhemisp heric
U E
Ġheterochrom atin
ĠU yg
Ġdynam ic
othe li
Ġf urn
Ġcap ut
ul ator
ĠY outh
MA F
Ġprop ag
Ġclass ifiers
Ġemp owered
h igh
Ġimmunohist ochemical
ad dition
oct anoic
Ġacc ommod
Ġflu x
Ġcla im
ĠAn gel
Ġbronchi olar
Ġst ack
ence phal
Ġcili ates
ĠS us
ĠReg istration
indic ator
w rit
Ġophthalm ologists
Ġlister iosis
Ġre ven
çĺ ¤
ac or
ĠGod d
Ġtermin i
Ġr uxolitinib
ĠZeal and
rod otoxin
ab s
oduoden ectomy
Ġbr ut
ob aric
Ġper pet
Ġsuper co
h ot
Ġhard ly
ĠB urn
ãĤ ¹
Ġch olester
Ġst y
Ġtrans actions
Ġg ate
Ġsc reens
terol ateral
Ġsub mitted
Ġ1 01
Ġlangu ages
ugh t
Ġbios ensors
em en
Ġmolecular ly
Ġfall s
Ġdet ects
ĠTR EM
Ġc oc
ĠBH K
Ĥ ¬
ĠAdi ponectin
Ġstri kes
ĠCle arly
p a
Ġdel iber
ĠI M
hydrogen ase
Ġrel ax
cer al
te plase
ann els
ĠS ystem
op ulmonary
Ġop s
ĠSen ator
Ġsome times
ol imus
ĠFe atures
Ġext rem
Ġwa vel
ameth oxazole
Ġ} ,
Ġcol itis
Ġrec lass
ĠDe b
Ġventric le
Ġbe ll
Ġcat ar
sus taining
Ġdis order
Ġpri vate
Ġvin orelbine
c ut
ar ding
Ġcons ervation
Ġamoeb ae
Ġi OS
ä¸ º
Ġsub domain
Ġl ocked
Ġem issions
Ġshort ly
" ]
angi otensin
ĠJud ge
Ġvasoconstr iction
ĠS ometimes
Ġmedi ation
Ġr ival
Ġd ust
Ġreach ing
F ile
Â¯Â¯ Â¯Â¯
ino is
ĠJ ason
Ġs atell
are t
Ġst ations
Ġrespon si
Ġag ric
Ġha p
ĠTechn ology
com es
ĠUn fortunately
ĠChild ren
Ġappl ies
ast ed
Ġan ger
ail ability
ĠDam age
Ġcomp are
ĠStand ard
Ġaim ed
ĠB a
Ġkin ase
angu age
Ġartic le
Ġmed ull
Ġreg ulation
f usion
Ġneon atal
Ġpac litaxel
Ġj ury
Ġpathw ays
Ġim plement
Ġair port
Ġse ctions
ĠPr ince
em ed
Ġmedic ine
Ġh itting
Ġsp ark
ol ves
Ġad s
ĠCa jal
St ate
Ġmedic o
Ġfood s
ĠCV B
Ġrepl acement
Ġsarcolemm al
Ġch icken
Ġhem orrh
12 99
Ġlow est
Ġaff ecting
Ġsulf amethoxazole
Ġmind s
oc rine
ins ic
CH C
Ġinvol ves
Ġavail ability
Ġanthrac ene
u i
T AA
Ġarr ang
Ġunderestim ation
Ġchem otax
Ġproced ures
ĠCh IP
Ġglob ule
ĠWh ich
%] ),
ivers ary
Ġi PSC
Ġreli abilities
Ġb ills
Ġplac entation
Ġimprove ment
ĠAlgorith m
Ġin ev
Ġexpect ations
Ġintellect ual
ĠEm erg
Ġsp aces
gal act
Ġmechan ism
ad m
ec e
2 50
bre ak
ĠZ e
Ġreas ons
ĠT enn
Ġco aching
ĠB alt
obac illi
Ġbar rel
Ġstern otomy
Ġstat ic
man n
Pol ice
Ġt ips
Ġhand ling
c us
ĠP CI
od ed
ĠG nRH
Ġradi onucl
il ton
Ġrest enosis
ir y
Ġjournal ists
our se
Ġcom ic
Ġproduc tivity
Ġnom ine
Ġreflec ting
IT Y
ĠAM L
Ġvers us
Ġlo op
Ġsur f
ĠInd ust
ĠHun ter
Ġbelief s
is an
Ġset up
Ġbre w
im age
Ġcomput ers
bo hydrate
f ol
} ,"
Ġvolt ages
ĠMed al
Ġm ep
Ġtax p
il ol
Ġdisplay ed
Ġbag s
Ġg rav
Ġf iscal
M on
anat omic
ĠMos cow
C BP
ĠK ong
Ġhisti ocytosis
ĠCent re
ĠF luorescence
Ġcamer as
ĠT um
ĠMr s
AM L
othal amic
ĠH ay
Ġmicrostruct ure
Ġcent rosome
Ġa ver
Ġemerg ent
Ġrever ses
ĠK elly
prom oting
ĠProte us
p y
Ġanti platelet
ic ting
Ġrequire ment
Ġproxim al
Ġplac es
Ġent itled
Ġdefic it
omb ie
Ġsh adow
ag ic
ĠA k
Ġel ite
Ġk el
Ġdiv ided
Ġf iss
ĠMT A
Ġhead ing
Ġpig mented
ĠCar ibbean
Ġcop ies
Ġlo oked
CT N
Ġloss es
ĠT umor
HR QoL
Ġv it
Ġover production
k ed
Ġbe havi
Ġregen erate
ĠB ry
ym ia
Ġan s
CT GF
ĠSte am
Ġrep orter
he im
ĠIt em
Ġdoub let
Ġsuper ior
t DCS
ĠÑģ Ð²
d on
Ġc osts
ER CP
HUV EC
ere nt
ĠI PT
ĠMB q
ul nar
Ã ¶
Ġactinomyc etemcomitans
de uter
Ġtherap y
yl ase
le akage
ĠAl li
Ġpe ak
g ia
ĠI ND
Ġhypercap nic
ĠMod el
Ġstratif ied
atis simus
Ġhur dle
Ġl ying
ĠAppro ximately
Ġinterpret able
ĠIber ian
Ġg am
Ġillustr ated
tro zole
le ting
z er
ĠMa jor
ĠMel an
Ġmarsup ial
r itten
ol us
Ġammon ium
Ġprotr uding
ĠER M
Ġrespons es
ĠDicty ostelium
car tilage
Ġconsider ation
it Ã¤
ĠGi emsa
ĠB ible
ter med
A AS
Ġl oyal
ost atus
Ġinst ant
ĠCon A
Ġp m
Ġconc l
oz oic
ĠFore st
ros ome
Ġprescrib e
ĠARI D
Ã ¼
ĠKet amine
Ġext end
Ġlear n
Ġexos keleton
Ġconv icted
5 43
Ġfound er
Ġs quid
Ġconv in
Ġad riamycin
ĠL ST
ĠO ak
Ġspec k
che ck
Ġcore ceptor
Ġsch olars
Ġbup ropion
ĠÃ §
p ed
ad herent
Ġpacem akers
Ġelectrocatal ysts
Ġover se
thal assemia
ĠGuill ain
ĠIÎºB Î±
T op
Ġsens u
Ġhand edness
et etra
c ount
ĠG PC
opa que
ĠBK V
ĠAr k
Ġphyto hemagglutinin
al p
ĠConc ordance
Â ·
thaw ed
Ġden o
Ġpoli omyelitis
Ġ0 6
ĠD oes
Ġuncover ing
Ġinadver tently
ĠL A
ĠL MICs
ĠT Q
m d
Ġmat ching
Ġamni ocentesis
Ġdisl ocated
ĠLat in
ep it
ĠTT F
s ensory
im ental
ti ff
Ġcell obiose
ĠC PU
A PA
Ġsubst ance
IN H
Ġminor ity
ĠArth ritis
Ġmanufact uring
ĠImmun ohist
Ġdysmorph ic
E r
adoles cent
ocol ate
par tite
Ġatt ended
ĠMan ager
ob arb
r ations
amnes tic
Ġappreci ate
Ġmicro channel
om y
sp ik
GB T
rel iosis
id ency
ÐµÑĢ Ð°Ð¿
B L
ment ary
Ġguarant ee
oph ren
ens ure
pos ition
ĠMI Cs
Ġsed ated
Ġo cean
ĠRoman ia
clud e
Ð¾Ð ¹
0 72
Ġhead ed
orm one
ĠT PM
Ġt ape
ĠG leason
Ġpsych opharmac
Ġlo ose
ag as
ĠB asic
oxid ants
Ġlog ic
ĠSur geons
Ġosm ol
Ġmicrobi ologic
Ġpro ven
Ġanticoagul ants
ĠM RS
Ġbic eps
Ġsp ir
Ġimmunohist ochemistry
Ġcomp elling
ati a
Ġad mit
ĠH ispanics
is a
Ġcounter acting
Ġinvestig ate
prop anol
por tions
Ġ199 4
Ġoutc ome
Ġspermat ogenic
Ġqu asis
sy lv
Ġa eti
ĠIF G
gl aucoma
ĠL ost
Ġconjug ated
on ene
OT f
c est
Ġsec tor
ĠT OC
æİ §
Ġ7 1
Ġion otropic
Ġper indopril
Ġrequest ed
Ġimmun ore
Ġperme abilized
Ġwind ows
Ġsulf ate
Ġf ilar
ĠPok Ã©
Ġad renal
Ġprop ionate
opl akia
ĠWith out
atic s
Ġanastom oses
Ġpub lishing
M et
ce mia
Ġblast ocysts
eryth ro
Ġbehavi our
ost in
or pha
Ġread er
ile p
04 4
Ġend osome
Ġh ung
Ġdef iciency
ĠAM PA
CH E
Ġmotone uron
ĠKe ep
Ġreflec tive
Ġsh unts
Ġsymp atric
Ġro les
na ive
Ġure ase
Ġenvelop ed
Ġimplement ed
ect ants
on us
ĠProgn osis
Ġbl ank
Ġvas ospasm
Ġsynthesis ed
ĠAn esthesia
Ġserv es
ti te
pos ive
ĠJ ay
an er
ĠK I
Ġc ited
Ġintraoperative ly
osin us
ĠF riend
Ġs onography
ĠTrit on
ĠGre ece
prof it
ĠCs A
Ġchol erae
ard in
ap on
tom ies
Ġth ylak
mt uzumab
Ġrep air
Ġun accept
Ġsple ens
Ġhunting tin
it em
åĲ Ī
enti as
arr ass
lit axel
tol erated
cl inic
Ġcrit ics
Ġth yro
TL PR
ad i
G pp
ĠF ather
di az
Ġsh out
ĠATP ases
Ġf ool
Ġoes trus
Ġ8 8
æ£Ģ æµĭ
Ġprodu cing
us ting
in str
Ġl ib
Ġcyt ometry
ĠCG H
Ġround s
epidemi ological
Ġcirc le
ophthal m
se g
Ġpre par
Ġpat ellar
Ġsub mit
gu an
Ġn ic
angl ades
mor row
ãĥ «
U nder
Ġv ital
ater n
Ġpass word
Ġpublic ation
Ġprom inent
Ġspeak s
Ġb ars
Ġde eper
ĠM ill
he tics
port ed
Ġbenzodiazep ines
Ġw id
Ġre vis
Ġbut ter
ophen e
Ġsm oking
ort in
Ġend arterectomy
Ġindic ates
ĠK nee
Ġg ob
K ey
Ġoligodendro cytes
rop ri
Z V
ĠF ile
all ing
ast ing
Ġexcre tion
ĠR us
Ġprac tition
Ġad j
en chymal
Ġversion s
Ġ7 9
Ġaff inities
av al
di hydro
Ġpres um
Ġprote olysis
bur gh
d ic
ĠHF D
on ic
Ġdy e
ĠS LC
Ġf ur
Ġpro duction
Ġpoll s
ik a
Ġsecond ary
Ġmon ster
ig s
ĠCur rent
Ġorgan ogenesis
E vent
ĠDR D
Ġowners hip
Ġcan ines
end ar
ĠAB O
Ġarri ve
ĠT ax
Ġan iline
Ġn ull
Ġdebilit ating
46 8
ĠPri v
elec tro
Ġd or
Ġth ro
Ġreflec ts
Ġk iss
c at
con ventional
Ġup set
Ġamen orrhea
ang le
Ġc Gy
it ches
Ġpre load
ect or
cy r
Ġan ther
olog ists
yn in
ĠGal axy
Ġcor ruption
Ġh int
ent er
ĠH ospital
Ġon c
Ġgreat ly
Ġbeg un
es y
Ġeuth an
Ġso il
ĠAnt on
Ġinf ected
Ġmain tenance
ãĥ ©
Ġdo zens
Ġhuman ity
organis ation
ĠAl abama
ĠPra der
olid ated
Ġr om
M TP
w orth
Ġas per
ap ing
ĠB EC
sylv ania
ĠL aboratory
l ah
Ġg athered
G A
Ġattack ing
Ġg amma
f ound
Ġep ilep
ĠSqu are
Ġ Ð¾Ñģ
Ġar bit
Ð Ŀ
ict ions
ĠW isconsin
Ġd ance
Ġand rost
ĠS aint
Ġ ÑĦ
osp ore
arch y
AR F
uter i
Ġbase ball
Ġis thm
ĠDi astolic
Ġcontribut ions
Ġmyofib ers
util ization
Ġliter ature
ĠTMA O
6 42
Ġex ha
Ġv ers
Ġnegoti ation
7 53
per ty
ĠCro hn
ĠE CA
t est
Ġcal retinin
Ġb ab
ot rans
Ġcontain er
let ter
rac tor
Ġfall en
CD I
Ġattrac tor
Ġwebs ites
Ġm TBI
ĠG c
Ġbott le
Ġcentr ality
Ġpoly caprolactone
ĠS ac
ĠS NHG
ĠÎ ½
Ġbre ast
Ġnarco tic
ĠMacroph age
normal ization
ĠP L
Ġchronic ity
Ġdecarbox ylation
Ġveter an
ĠBa P
ext remity
Ġinterview s
Ġal endronate
Ġemit ters
eff ector
ĠA le
oph al
Ġextra peritoneal
Ġb anned
Âµ M
Ġjasmon ate
Ġpyrrol idine
eng ers
) %,
Ġmelit tin
Ġ4 61
ĠRev olution
ĠIn haled
Ġunder treated
in th
ĠRA F
PS II
Ġconc erning
Ġbronch ogenic
oster ols
IV E
Ġcompres sibility
link age
Ġexp enses
ĠPM L
Ġst ocking
GR ADE
ĠMatt hew
Ġenteric a
og rÃ¡
ogroup s
ĠColumb ia
ĠAbor iginal
Ġphotocatal ysis
Ġimmortal ization
d s
Ġdis inf
Ġs ider
Et OH
if ostine
ist ance
7 03
ĠA OX
Ġent ity
P PS
ĠC US
.. ."
rol ide
ap ses
Ġrel iable
Ġext raintestinal
RI D
Ġpar alle
Ġnan ometers
Ġalkal inization
ĠChrist ians
sensi tizing
Ġopin ions
Ġin du
p rec
l ow
tox icity
Ġcompet e
por t
ĠP AD
Ġth orough
Ġabor tions
Ġemploy ed
ot tic
Ġestablish ment
Ġab dominal
ig en
Ġam bi
ĠC ro
ti tion
Ġlawy ers
ĠSt ation
T E
gl umine
ĠL ind
Ġsc at
ĠP ur
Ġgl omus
it ary
Ġsea weed
Ġeffic iency
Ġpre operative
ĠMic roscopically
âĢ Ĳ
Ġvac cine
ĠRa ji
ĠL y
ĠCl inical
Ġvesico ureteral
Ġm ask
Ġstatis tical
ĠT EN
Ġdis aster
RS F
Ġag es
arous al
ER E
Ġcoun ts
fix ation
es is
H BP
Ġgram icidin
ĠH old
Ġli ver
Ġent ropic
Ġambly opic
Ġcas ual
f orest
MT B
b led
Ġn ip
Ġen abled
ĠT NP
ĠEn vironment
ĠInt elligence
i per
ĠM ap
Ġb uck
ĠB E
âĤ Ģ
Ġemer ged
thi ophene
is dom
mel anoma
Ġc abin
ĠEpig enetic
Ġregist ration
z uel
Ġuncon strained
Ġfing ers
Ġabrup tion
Ġro ster
Ġnitrox ide
Ġfram ework
N CR
ĠDo ctor
p oc
et ts
der ly
Ġtransport ation
Ġvari eties
Ġaware ness
c ass
Ġg hrelin
H er
ion es
Ġpal mit
Ġattempt ing
on ucl
Ġs es
si i
O ff
B H
ap amil
ug rel
ĠSt ore
om ys
ÃĥÃĤÃĥÃĤ ÃĥÃĤÃĥÃĤ
ĠK now
Ġdef ence
Ġsc an
Ġvasodil ation
ĠT en
ex t
ĠCh air
Ġleuk emia
otox in
ĠP H
Ġclus ter
Ġaden osine
ĠAtl anta
Ġintrac ranial
part um
Ġfuck ing
Ġoste opor
Ġweather ing
Ġans wered
tr unc
b n
Ġbl urring
ĠK ar
Ġpurpose ful
Ġcateg ories
Ġdiss atisfaction
åı Ĥ
Ġr ational
Ġan abolic
gland ular
Ġc ust
Ġradi ographs
opos itivity
Ġsupr aspinal
Ġrob ot
op rop
Ġgastroenter ologists
Ġpicro toxin
Ġcorrect ly
Ġdis tor
ĠI OL
Ġh ant
Ġg if
ox if
ĠInf ection
Ġgraph ics
m ic
ĠSym b
Ġground s
ĠTe ac
ĠO pp
Ġol faction
i ate
Ġdist ributed
CO VID
Ġsan ctions
catal yzed
Ġchalleng ing
ut o
Ġde pressive
Ġingred ients
empfer ol
Ġinv ited
itor um
Ġfound ed
ĠRe qu
Ġex os
d ed
igh bor
Ġb owl
Ġem o
ĠN U
Ġbrother s
grad uates
ĠH a
ĠS CP
k d
I O
Ġeffec tor
Ġincub ating
ec urity
Ġw ages
Ġinters titial
Ġsynt he
ear ches
im ore
ĠCX CR
90 7
Ġwas tage
oc ial
ĠCR F
ĠAms terdam
ĠM aternity
Ġse ed
Ġim plies
ĠAm er
ative ly
Ġpair s
Ġtempor oparietal
Ġaddress es
si es
Ġen ergies
ĠELI SPOT
ĠI owa
Ġhydro gel
Ġfrail ty
ĠBulg aria
ab eth
Ġre versal
Ġtranscri ptom
Ġlifec ycle
Ġatt itude
tif ication
ici ous
is d
ch ild
Ġm ole
ĠCol lectively
Ġdisco very
y ard
B r
to oth
Ġ8 2
Ġsuppl ies
asc ul
ell ing
Ġdist ingu
C R
Ġre cept
Ġ vert
Ġsw im
b ec
ĠF c
d oor
Ġcereb ellar
Ġconfound ing
ĠY eah
Ġmo tiv
ĠEnter obacter
Ġg al
yt es
Ġinter act
ĠE SP
ĠC S
Ġun iaxial
amp s
yl ated
ME DLINE
Ġconvin ced
Ġgranul ocytic
Ġobject ive
Ġdis h
ĠPhot os
D XA
l ad
AT R
Ġdownt own
am oya
o il
ĠEn cycl
in ction
Ġto morrow
ĠC OM
Ġsurv ival
sh ot
Ġsett lement
rop s
C ons
Ġpharmac ies
ĠX box
l actic
ĠL IS
int erest
CL D
ĠS M
ĠIm pression
I PSS
arg o
ther n
Ġintra observer
Ġphosph ofructokinase
en ess
Ġfix ator
Ð¼ ÐµÐ½
ĠAnti retroviral
Ġeth nic
amin a
ĠDU SP
lact ating
b ered
Ġabras ion
ĠRhod obacter
Ġsubsc ores
M in
med ial
Ġhypercoagul ability
ĠT ok
aut onomous
ec avir
Ġinc ent
ĠBi ochem
ĠL BM
ĠComm and
ist ocene
Ġmain tained
Ġbreak s
z ation
br idge
cyt es
at ar
ox yl
ag g
crib ed
Ġdiscontin uing
ĠF inally
L F
Ġter pen
un icip
Ġl ateral
Ġaneurys ms
ĠO nt
Ġprost agland
le ft
Ġrecogn ition
Ġ* /
ĠP ers
Ġwe lf
Ġaddress ed
ĠK ansas
Ġvir us
ĠGuang xi
Ġwhere as
ĠHart mann
Ġp apers
ram s
ĠMin istry
Ġple asure
at ten
Ġacqu ired
Ġhyster oscopy
Ġd uration
j pg
Ġcal m
ĠN HL
ice a
Ġburn ing
fac tors
Ġoxygen ator
Ġfold er
blind ed
Ġhome opathic
ick ed
od ine
Ġconstric tor
ĠP y
ocycl ic
Ġnex us
ĠIll inois
Ġsugges tions
Ġacet aminophen
ĠG SC
Cl ass
ĠCT L
Ġre traction
Ġover diagnosis
ĠGodd ess
yl es
Ġex ceptional
HP O
oler a
Ġperform ing
Ġballoon ing
ĠDE XA
Ġwelf are
Ġconsid ering
Ġ5 95
ĠV entil
j ar
Ġro f
Ġdermat ophytes
In ter
Ġidentif iers
tis olism
ĠApo B
Ġl in
Â® )
TT X
le tic
Ġenh ance
Ġgener a
S ERS
Ġseman tics
Ġnot ion
Ġp leu
b endazole
f are
ĠRas ch
h GH
yp es
Ġb iallelic
cop al
ĠH CH
ĠAre a
ĠF LC
Ġocc luding
ĠN AM
Ġcann abis
Ġdec oy
ĠK G
ĠDie go
ĠS FT
acet in
f s
ĠB PS
Ġtri acylglycerols
Ġba PWV
ĠM anchester
MD D
Ġcal protectin
çİ ¯
com m
Ġsymmet rical
ĠGest ational
ĠO RS
in ite
Ġmunic ipal
CD T
Ġcover ing
SA R
ĠI reland
HS Ps
ĠS ound
Ġdele tions
Ġflux es
Ġmetaph ases
Ġ19 60
ĠP TP
Ġmicro filaments
ĠBab y
Ġ8 4
Ġpur p
ĠPT K
Ġn Ãº
e lect
Ġreg imens
Ġneph rotic
Ġmin ipl
z ing
ĠCr uc
Ġcitiz en
Ġsub stit
5 83
Ġph ones
a ren
ĠED V
Ġr aid
in ine
Ġmultic h
Ã¡ rio
Ġign ored
Ġne ar
Ġosm olarity
particip ant
ĠOb ject
enti lation
ĠBR D
ĠFung i
Ġu pload
Ġidenti ties
Ġre challenge
c ard
Gl n
th ys
Ġmod ified
tor ia
Ġroom s
Ġrec urrence
ia h
itud e
Ig E
r ange
Ġpros pective
Ġas phy
he ast
Ġsinus itis
ach us
ĠInvestig ation
Ġsuggest ing
Ġn oxious
a vidin
âĢ ĭ
Ġpar ti
Ġhydro per
gr ade
ec um
act yly
E l
Ġhyp okal
Ġclot hing
od in
Ġr h
random ised
ĠH an
Ġfamil ies
un ity
Ġerec tile
en cing
ĠEnd oscopic
ĠAust in
sec ution
t ra
d em
ĠQ ual
yl ic
Ġhe aven
Ġst ages
Ġw edd
pl us
ific ial
ĠIm m
ĠH o
ĠColl agen
iet ies
v imetric
Ġphr ase
Ġaccur acies
Ġbr ill
ophen ol
act ory
Ġprov iders
Ġsil ence
Ġa er
Ġsil age
ĠA I
ĠM CD
ĠAd venture
ug inosa
ĠCharacter istics
Ġplatform s
cat enin
Ġdemonstr ated
ig her
Ġinter f
ing ton
Ġpredic t
Ġr aces
Ġgr ade
ult ane
ĠTh rough
f alse
Ġb ow
ĠA B
ĠD DP
Ġfl avor
ĠCE TP
Ġhistor ic
Ġreapp raisal
g ov
Ġsarc omere
Ġbirefring ence
Ġcol our
ĠDat ab
il irubin
pro gression
Ġview ed
Ġlymph oid
ĠR RT
Ġpul posus
ĠEm ail
ac yl
Ġhyp ospadias
Ġmuc ocutaneous
el come
ok ines
Ġthym oma
Ġinter vention
ĠS CI
ĠPPI s
Ġd iversity
ĠMD A
d V
Ġperiod s
t ability
Ġre verse
circ uit
ĠV ery
Ġvirus es
Ġqu ote
ĠVi etnam
ĠLe ft
Ġbio activity
th rough
Ġsc rew
Ġland ing
Ġp ill
Ġw et
Ġprot esters
os m
Ġrepe at
av ed
er k
Ġsal ary
et hyn
ĠPenn sylvania
Ġ45 6
St ill
Ġmay or
Ġkit chen
ĠCis platin
Ġfeat uring
PV P
ĠM useum
ĠT ournament
ĠF al
Ġser vers
U C
Ġany body
im g
ĠTr ade
ixt ure
the less
Ġfin ance
Ġcl osing
Ġmicroc rystalline
ĠPat ri
Ð¾ÑģÑĤ Ð¸
i ac
ĠAvoid ance
ab el
p D
Ġ> >
amp ullary
or ous
ru z
Ġfeed lot
Ġf irms
Ġmic roscopic
Ġlipid omics
methyl cholanthrene
sc reen
Ġapt as
Ġsupercapac itors
un a
Ġundet ected
el as
L AC
Ġemb arrass
Ġlys osomes
quin olin
N PA
ul se
Ġintere sts
èħ º
Ġlet ting
Ġanalog s
ap sing
Ġth rew
cover age
ile y
Ġmil ti
Ġch annels
Ġneighb oring
ĠC ategor
l an
r ites
MS D
ĠVeg as
Ġcur able
Ġvers icolor
Ġse ar
ME F
Ġfant astic
Ġhydrodynamic s
ar re
Ġasphy x
uzz le
list at
ĠD er
Ġcoales cent
Th ose
ç ĥ
Ġsw ing
uc asian
Ġshe et
ĠV CR
ind ex
Ġanc ient
press ors
co ver
Ġprolif er
Ġvag in
og an
EL O
Ġvari ables
Ġinterpret ative
ĠTe ch
ĠColon oscopy
Ġsp oken
P seud
ac hel
Ġbi ogenic
R NS
ĠD a
Ġsati ety
Ġec dysone
ĠMount ain
Ġamin es
Ġdisrup tors
Ġload ed
Ġolig omers
ĠBi ologic
Ġfoot age
Ġlum en
ĠClostr idium
ĠAut onomous
vers ion
co up
ĠReg ression
ĠWilli am
Ġun l
Ġint ubation
Ġspecific ities
ag amma
ĠPh oenix
Ġsick le
Ġthrow ing
Ġbact eremia
Ġf iring
Ġtrack ing
Ġw idth
Ġstrugg ling
ro oms
p enicillin
ot ion
Ġ4 37
Ġmonth ly
ĠSer ver
ch olesterol
Ġegg s
op en
Ġexc itation
M C
Ġ199 3
Ġde vi
Ġh ired
Ġsubjec t
Ġstay ed
ĠAll en
Ġst ro
Ġ9 8
mat urity
st ep
m embrane
ĠTurk ish
MD A
Ġc otrans
Ġfab ric
ox ins
ist ing
ĠB eta
ĠD om
Ġintro duction
Ġd ates
Ġpr on
hyd raz
Ġbasket ball
meas ures
Ġgrap e
Ġl ucky
initi ated
ĠA BP
B CVA
ĠArab ia
em otional
dor feri
N p
Ġassum ed
Ġo estrogen
ĠØ ¹
est y
Ġimmun ofluorescence
Ġh yster
Ġhind limb
Ġaff airs
eren ces
Ġh os
est hetized
Ġgl ad
struct ure
Ġle pt
ĠInd eed
Ġsha ft
ĠF A
ĠW ord
Ġul tim
Ġjo ining
ĠEx act
if ice
ï¼ Ľ
å¹ ²
p read
lic k
omorph ism
ir ts
Ġaden oid
Ġmur mur
ĠSe lect
Ġoce ans
Ġpop ulations
torh inol
aw are
Ġnec ess
Ġn ose
Ġse g
Ġhem ic
Ġcompl aints
qu ilibrium
ĠDN MT
st art
Ġre bound
Ġsc oring
Th anks
ell es
Ġmin ing
Ġvisit ors
S H
is olated
Ġdam aged
Ġthi obarbituric
Ġcharacter istics
ophyl l
Ġincom ing
ĠP ent
Ġglauc omatous
D C
Ġorgan oids
Ġintim ately
Ġ8 3
ĠDros ophila
kn ockout
ĠS ix
teg rade
r ates
Ġmono valent
Ġfl ags
Ġsacrific e
ĠB rew
ĠHC Ws
d og
ĠTR AP
M ark
Ġpat ellofemoral
al ar
// //
Ġpl umb
ran c
Ġexec ution
Ġmicro phthal
Ġj oke
ĠPG M
ph ones
ND V
Ġtestim ony
Ġcul ling
Ġob st
ĠInflu ence
Q L
A MA
ĠC ut
Ġt amsulosin
Ġstud ied
Ġcross bred
Ġinv agin
ĠN intendo
struc tion
CI C
ick et
auc her
Ġlamin oplasty
ĠN BC
trifluor omethyl
Ġperioperative ly
Ġl ad
ec tal
otag min
ĠB ra
Ġsc rat
ĠH AD
ĠM oh
Ġcor neum
ech s
Ġhem ophagocytic
Ġk ernel
Ġthromb oplastin
Ġassay ing
ĠSD C
Ġoverwhel ming
3 38
ĠT olerance
he ct
Ġag ed
CO D
ĠA HF
nitros ylation
Ġapplic able
Ġsuic idality
ĠC ond
Ġrac em
Ġroad s
ĠBl ock
m ade
Ġvig ilance
od ge
y ly
Ġcomm ands
Ġoff ices
Ġproduc tions
vel and
ĠAnaly tical
Ġf ura
Ġt ut
ĠUn treated
Ġrece iver
ĠF ro
Ġseg mentation
Ġsho pping
Ġi P
ĠSt re
ocl ax
ĠA BC
ĠÐ Ĳ
6 24
Ġentertain ment
Ġdel irium
8 44
ĠB ow
ort ed
Ġhex okinase
M c
ĠHered itary
Ġread s
05 3
im iento
gr ad
E CG
ep oxy
Ġole ate
ĠCol lect
Ġinser t
RT Is
ald osterone
Ġâ ĪĴ
Ġhypot onic
ĠCap ital
Ġdry ness
eder ation
Ġda un
special ty
Ġemploy er
Ġlignocell ulosic
Ġrof ecoxib
Ġinvolve ment
Ø§Ø ¯
Ġo torhinol
Ġanx iety
T U
al ia
fil in
Ġro of
åĪ «
ĠAm ong
Ġglob us
sp inal
ĠDemocr at
Ġpos si
ĠConf irm
Ġont ogenetic
Ġstat s
Ġcarcin oembryonic
Ġcurv ilinear
ĠV ill
Ġaccred itation
Ġimmunophen otype
Ġconst itutional
es ia
ĠPtd Ins
Ġpoly electrolytes
Ġrefer ring
per missive
itt y
Ġundere x
Ġtack le
out ube
I H
Ġback ed
PD E
ĠH ong
Ġtro ub
ĠBro ad
PT SD
I le
Ġe le
ĠO tt
Ġ199 2
h our
ĠNAD PH
achus etts
C al
Ġend ang
Ġdefe ated
Ġvul var
G RP
Ġ8 1
es p
Ġseem ingly
w as
ĠSequ encing
ĠJ enn
Ġsh RNA
ax one
ĠK urd
Ġvir ion
P CL
Ġg ene
Ġdi phosphate
Ġdisc ount
R et
Ġtransfer ability
EC T
level and
( );
ĠSR Y
Ġclub s
ĠÐ¿ Ð¾Ð²
Ġs id
ogast rod
Ġpacient e
ĠM arsh
ins eng
z oster
Che ck
Ġsynt hesise
Ġepit axial
Ġp p
Ġparsim ony
ĠAr ach
ĠE ag
L N
oph oric
ides pread
ĠL OS
HA s
Ġbe ings
Ġhaemorrh age
ĠTra it
F T
Ġradioluc ent
Ġintrodu ction
le u
Ġram ipril
ĠCh ange
epithel ium
AR D
ĠmTOR C
Ġ Ð¸Ð¼
Ġ1 10
in ones
ad ows
ier ce
ĠCAS P
Ġme al
a uthor
Ġinter mit
ĠB ang
lah oma
Ġmicro de
Ġr anks
Ġampute es
201 1
cannabin ol
?? ??
ĠDatab ases
m ax
a rom
Ġcoll apse
ĠM ature
Ġop ens
Ġe cho
Ġs oph
Ġrac ist
F DG
Ġenorm ous
Ġsensi tized
Ġw aves
sub unit
Ġannot ated
Ġt ap
Ġflavon oids
res ia
Ġcomprehens ive
. --
ĠR oy
Ġfarm ers
Ġcap topril
Rel ated
Ġcarcin ogenic
en an
a ired
ĠCa en
Ġpolyoma virus
ron es
Ġcoll oid
ĠC rim
iform is
ĠTT M
Ġproport ion
Ġcultiv ar
Ġtra y
Ġcuc urbit
Ġdesign s
MI S
MI D
J H
Ġnegoti ations
n RH
ys titis
ĠCom ponents
t ech
Ġvirt ually
Ġt ex
Ġhyper phosphorylated
ĠBat man
Ġfr uits
Ġlas ing
Ġwar n
al coh
sc aled
Ġlegit imate
Ġpa id
Ġevapor ative
m ate
Ġpseudoaneurys ms
Ġcon vention
l ichia
, ,
ĠER Î±
ca utery
net ic
ä¹ ī
ĠS D
Ġterpen oids
Ġconsist ently
Ġcompens ation
sp ring
Ġpunish ment
Ġy e
Ġt ie
ĠH CC
ĠB ureau
Ġre attachment
ir lf
lymph oid
Ġe zrin
ĠB u
SS S
ĠA ren
Ġcirrh otic
ĠChrom osomal
ĠPh ilipp
L CA
Ġkn ife
ogra fted
Ġmem ories
le tions
ĠR oss
Ġpri on
Ġang le
ycl ic
Ġ8 6
Ġex er
ĠTh under
Ġre nd
ĠT our
Ġcount s
s ung
ĠIm p
Ġeduc ational
Ġaccess ible
C OM
Ġd rew
y er
ĠA OD
G l
ĠT EG
am ine
b ean
OR T
Ġcon ditions
O B
Ġmed ullary
I B
Ġlact ation
m yc
m aster
ĠT g
N MDA
Ġtri als
ĠSI RT
Ġgenes is
Ġfore gut
og y
is tic
PH B
h ar
Ġcar ri
Ġion ophore
Ġquinquef asciatus
ĠTr ust
ĠP CA
Ġsub species
Ġprefer red
et ra
Ġchem iluminescence
ç»ĵ æŀľ
irlf riend
tig mine
ĠN ev
Ġglyc aemic
Ġb in
Ġont ology
Ġc ow
artic ular
on ol
P age
Ġsign ature
ĠB L
Ġplas min
7 00
Ġprogressive ly
ies is
Ġret ired
Ġmon ocyte
ĠA ging
Ġby tes
uccess ful
ĠCFT R
Ġneigh b
ĠLeg end
Ġdev ast
Ġsuspect ed
is ons
ĠPokÃ© mon
sc ale
Ġcap abilities
Ġre vel
ip ine
Ġche ese
vari ate
ne ider
d y
oprec ipitation
Ġutil isation
am oxifen
igr ant
Ð ¿
ĠT SP
Ġsyn uclein
Ġfail ing
Ġk ept
Ã¼l ler
b its
Ġcereb ro
Ġhydrox ide
ĠHer oes
uter ine
Th r
ĠQL Q
ĠG host
Ġis oflurane
ĠS cient
Ġhem olysis
Ġappoint ed
Ġfinger prin
ur i
Ġiat rogenic
Ġinst itution
ç ł
plic ative
Ġexpand ed
g reg
Ġco ex
Ġmonitor ing
ĠIg E
Ġfor aging
Ġp odcast
Ġ Ñģ
ĠO c
Ġcoal ition
ĠCO L
Ġ9 6
Ġsuprap ubic
J o
Ġphen otypes
ĠEukary otic
Ġst olen
åħį çĸ«
ĠS ab
Ġstop s
oxynucle otides
Ġhol iday
Ġsil ane
Ġint r
Ġthermore gulation
C ar
st ages
Bl ack
Ġst oma
Ġser v
ĠL GBT
Ġd rowsiness
å£ ¤
Ġwar ming
ĠC GS
N m
ĠAnd erson
ole ptic
Ġac ral
Ġ8 9
Ġprodu cer
M ed
Ġaccur acy
ĠMar vel
tiv eness
iz abeth
Ġquestion nai
ĠPat rick
m ony
Ġmin i
ac les
eal and
Ġover t
w elling
Ġh MSCs
the y
Ġmulti drug
y rene
em ann
Ġmembers hip
ari o
yl us
ĠV en
dop amine
å® ¶
Ġex ch
ectom ies
Ġlig aments
ĠF MT
Ġrem oval
Ġpro drug
et obacter
ĠDef ects
ĠD ave
Ġcl opidogrel
t andem
ogn athic
T Y
Ġau tistic
m ad
ĠF ind
Ġad equ
Ġe c
Ġte eth
Ġemot ion
Ġper m
Ġsole ly
d b
at ellite
Ġextra ord
Ġgluc agon
emi us
IG HT
amyl oid
Ġaph asia
c al
Ġdich lor
ĠObserv ational
Ġgu idelines
Ġquar tiles
Ġd ying
pl asma
Ġsusp ended
ĠPrem ier
ĠOl der
ĠAnth ony
c ience
el ve
Ġd ad
Ġcontrover sial
ĠE th
ĠFoot ball
Ġabandon ed
Ġ< <
Ġm arch
Ġhor ror
âĢ¦ "
Ġchild hood
Ġcampaign s
si zed
Ġl unch
ĠLip id
ĠAl bert
ç» ĵ
ĠRele ase
bl ock
ag onal
âĸĪ âĸĪ
Ġrespon ding
Ġparox ysmal
ound ing
ereb ral
Ġdis infection
Ġb one
Ġphosphor us
ĠEthi opia
or gan
ad ers
sor ption
ĠFl ash
ĠDri ve
Ġton ight
Ġw ars
ĠF L
Ġform ation
con st
New s
Ġcom pe
or ious
ĠSt aff
Ġdiscuss ions
ĠProt ection
ĠJ am
Ġcrit eria
Ġinstall ation
Ġaccompl ish
Ġa eration
iz za
ine urin
Ġpub lisher
ob ronchial
Ġresc ue
Ġeffusion s
ĠT ry
Ġconfirm ing
ĠRA NKL
U LL
Ġcle ft
Ġov ine
ĠS om
tr imethyl
ĠH op
Ñģ Ð»
ore t
th s
emic arb
ord on
tiv ity
ĠÐ»ÐµÑĩ ÐµÐ½Ð¸Ñı
Ġp ocket
er ative
Ġcapsul otomy
ĠIn v
Ġmul ti
o vir
Down load
Ġcharacteris ed
ĠCr ime
Ġb olus
Ġb ene
ĠGu ide
Ġnor adrenergic
ĠAs sembly
Ġdebrief ing
Ġparam eters
r GO
I E
Ġibr utinib
ĠAlex ander
Ġsuc tion
Ġconc ert
ĠCO S
ĠSc he
gen erating
Ġsh oes
Ġgranul oma
IC G
Ġvis iting
ĠCong enital
ul atus
Ġdep ots
Ġrec all
ĠR MS
orb ital
di hydroxyphenyl
Ġb ub
Ġasymmet ric
Ġspecial ties
Ġure mic
ĠTR F
Ġr ural
cit abine
ĠTNF Î±
Ġch rys
Ġtun ic
Ġconc rete
Ġlip oprotein
Ġinterfac ial
ĠO vari
Ġjaponic us
ĠR os
Ġschistos omiasis
e tism
N ext
m ixed
ĠNe isser
Ġeyel ids
R uss
otroph oblast
Ġlo ans
m aternal
ĠSh ield
Ġpedic led
Ġtre m
ri os
hem at
Ġ3 53
k g
p yr
Ġderange ments
ĠHar ris
Ġhal ogen
is ition
Ġos seous
ĠM ove
Ġf asted
ĠF C
ch us
Ġf ate
P d
ĠCh o
min utes
Ġt ired
Ġal opecia
Ġcholest atic
Ġprinc ipal
rolog ists
CL s
os cler
h ist
b ud
ien ces
ĠG FP
ĠS ections
ath y
Ġorigin ated
ĠE GR
Ġse vent
Ġgra f
olester ole
ĠOx idation
Ġm ood
Ġreas on
ur onic
Ġs enti
Ġstrateg ic
Ġper i
Ġqu in
restric ted
Ġdise ases
Ġcyt ogenetic
Ġantagon ism
Ġfor um
ot racheal
Ġtem por
Ġincomplete ly
ay as
Ġhead quarters
Ġinter nal
ĠMet abolic
Ġflud arabine
P ar
lys is
Ġle vetiracetam
ig e
Ġco up
fl ix
ĠI K
Ġgu itar
ĠInstit utional
Ġ9 4
On ly
Ġrele ases
ro ph
================ ================
Ġ6 00
ĠContin ue
ig ate
ĠC rit
sy stem
Ġdis abled
Ġunex pected
ith ub
Ġuncle ar
av ity
ĠE st
omy ositis
Ġcontr ad
Ġst rand
ĠM PI
Ġstrateg ies
Ġnit ro
Ġstri ated
vent ures
rex ed
Ġpass age
Ġelectroencephal ographic
AM E
rec tional
ruit ment
Ġimpro ving
olec ule
Ġv oxels
Ġreve als
Ġlaryng oscopy
Ġdecre ase
ov a
Ġann oy
ĠSh ort
hydroxy indole
ĠL ibrary
ĠC s
Ġsub tracted
Ġcy ber
Ġprostagland in
ĠF actors
ob el
n ell
Ġnas ogastric
Ġpoly uria
ĠH ur
-( (
ĠC B
odegrad ation
Ġinconsist ently
Ġphot ograp
Ġindi rect
ĠS omal
U I
Ġval u
Ġhyp ointense
Ġs ed
Ġman soni
Ġneuro active
G e
Ġsh or
Ġsepar ations
Ġfeeding s
Ġ8 7
Ġdiamet er
phen otype
ĠHS IL
Ġd iverse
Ġamp ulla
Ġencour aged
Ġcons piracy
Ġreprogram ming
Ġbird s
Ġoper ator
Ġhand ful
arr hythm
Ġclass ified
Ġneurode generation
ĠI AC
? )
Ġman agers
ĠCom orbid
Ġdram atic
Ġexacerb ation
Ġpoli tics
Ġinvestig ators
Ġmedi ans
it o
anth ocyan
Ġw idespread
ĠN asal
Ġcalc ific
ĠR oom
Ġmuscul ature
ah r
-------------------------------- --------------------------------
an esthetized
Ġcollect ive
ĠU TR
Ġjournal ist
Ġperone al
St ring
Ġtemper atures
il a
Ġgre en
Ġgu id
Ġins pect
Ġmiss ile
ĠMay or
Ġman ual
Ġsim ultane
Ġrat ings
Ġsu ck
Ġ9 7
Ġunivers al
Ġph arm
Ġdis rupt
ra d
ian o
A V
hip ple
Ġf t
Ġkine tics
Ġstat ist
ĠP IR
old s
Ġun fertilized
ĠWalk er
ph p
Ġunder t
ĠL as
ch ang
ish op
Ġbu il
nt il
res hold
ĠWhe ther
M s
Ġden y
ĠCl oud
Ġprov ider
Ġsurv iv
ĠUp date
h as
Ġmist akes
ĠProvid ing
ch arge
Ġgovern mental
Ġlag ged
pl ed
Ġsib lings
Ġcar niv
r ity
Ġfu el
Ġn ode
ĠIns ulin
Ġn af
ĠMass achusetts
rele asing
se ated
ool s
ĠD FA
lic ation
Ġhyp okines
Ġf ails
oxy cillin
em ale
ĠOX PHOS
or i
back s
Ġsh irt
NADP H
Ġ' '
ĠN AT
Ġwat ers
an olic
els on
Ġe ase
Ġsc ar
Ġcont ents
m ind
Ġfib r
Ġcont ribution
Ġsh r
Ġhand ed
Ġnic otin
Ġst ability
Ġpar ac
Ġtra ve
ec utive
E m
Ġsubst anti
Ġmir ror
res pectively
12 3
Ġwe igh
ĠAc t
Ġf iction
ou ver
ist ant
tr ically
r ition
Ġphosph ine
ĠF ed
ĠAge ing
Ġphys ically
Ġund ifferentiated
synt hesis
Ġst ake
Ġre ovirus
ĠArt icle
adj uvant
ĠAr c
ĠLew is
Ġinvas iveness
ĠM ind
Ġplas mon
Ð¸ ÑĢ
Ġdemonstr ate
ĠCon ventional
ĠP AP
Ġquar antine
Ġprof its
Ġmon ophosphate
è¾ ĥ
v ision
emi as
om ic
ureth ral
ol id
Ġf orec
Ġbatt les
ĠE SCC
Ġdri ves
ĠHN SCC
Ġeas tern
ell ate
aw ater
ĠS ony
Ġshed ding
ed le
Ġcyt ometric
!! !
w es
ar ation
v ard
ĠG L
port ation
ĠCa uc
Ġ9 2
Ġlaw makers
ic tion
Ġprotect ing
o L
ĠE PA
Ġy eah
Ġhem ip
Ġsh ame
ol ph
Ġtryp anos
e ven
x it
Ġatt ach
Ġrepresent ing
Ġob s
ĠUt ah
iff s
ĠFre edom
Ã ³
A K
Ġra bb
Ġinc idents
it age
Ġview ers
c d
Ġm ouse
er ations
Ġcl ar
Ġuve al
Ġaccord ance
Ġb ot
c or
ĠSum mer
Ġcle arly
he ld
Ġinnoc ent
Ġiniti ative
ol s
ĠPartic ular
________________ ________________
ĠCo uncil
Ġsp ots
Ġpoly unsaturated
p ace
Ġlip ase
Ġactiv ators
Ġconvent ional
ati vity
Ġcorpor ations
âĦ ¢
Ġblock ed
Ġd edicated
H D
Ġd rain
as ted
at tered
Ġmen isc
Ġref ers
Ġbu ck
Ġrepres sor
ĠDig ital
12 0
Ġtop ics
Ġadmin istr
T F
Ġimmun otherapy
Ä ģ
Ġpor cine
Ġoligodend ro
br id
rag m
Ġsym b
re ement
anis h
lies t
Ġunder lying
ĠIndi vidual
MP s
ĠM ember
Ġinvestig ating
Ġsinus oids
Ġpregn ancy
ĠSV T
Ġtouch down
Ġanti gen
Ġanesthesi ology
ĠB and
Ġgh osts
ĠCall er
P LP
Ġinst ances
im ycin
P P
Ġsome what
fil tered
w a
ĠC ognition
G ood
ic ine
Ġalle l
Ġ199 1
ams ulosin
ĠC old
' (
Ġfear s
ĠER Ps
Ġrem arks
epis ode
Ĩ Ĵ
at al
Ġm it
Ġexper iments
Ġ unc
i pt
Col or
ind u
Up date
Ġ9 3
A g
Ġexc ision
Ġ å
ĠD op
anc ouver
B oth
ĠPig s
Ġjud ges
v oxel
Ob ject
SP T
Ġsoci ological
Ġst ere
ĠInt act
ĠM DL
umb n
L AR
Ġunid imensional
Ġparticip ation
f ural
Ġvarious ly
ĠSt ars
SP I
ĠJ ere
Ġhydroly zing
Ġweek ly
ĠB an
ug e
Ġconvers ations
Ġem odin
ĠP itt
ag al
u z
ĠIndian a
ĠK ick
Ġinf ection
Ġhero es
Ġsett led
Ġstri p
Ġp soas
Ġh al
un infected
Ġd ump
ĠS ci
Ġl es
Ġref erences
ĠU RL
I NF
ĠBr idge
ĠS ES
asp inal
Ġwant ing
arb onate
ĠA MB
For ce
Ġpert ussis
ĠL aryng
Ġfat ness
Ġex clus
sy c
Ġtop ologically
Me anwhile
omet ries
m n
Ġcarbon ates
Ġg entle
Ġb rit
m aker
ub erculosis
sen al
ĠG ro
ou ri
Ġpreclud e
ĠR ain
ĠAll iance
Ġl ift
el a
Ġchel ation
S D
Ġep oxide
Ġglen ohumeral
ĠCle veland
Ġadmin istration
Ġc ogni
Ġbasophil s
Ġrank ed
c hem
rec orded
ĠBifid obacterium
Ġst adium
gly coprotein
asc orb
Ġdead ly
arb y
Ġmill ing
ä ¸
Ġantipsych otics
Ġr iding
Ġacc lim
ar ia
Ġsyn ovi
ist atin
ĠAr mor
Ġir is
Ġins tig
Ġdocument ation
Ġadip ocyte
Ġaltern ately
ĠGree ce
Ġoct yl
ree k
ĠTK R
Ġl ens
as ilar
ĠS a
Ġg ross
ĠI mp
ĠE mer
if orn
ag ers
ĠD ub
ĠR h
Ġmyel osuppression
ĠAM D
Ġdecreas ing
ĠAngi ogenesis
Ġarri val
Ġwort mannin
Ġdes ert
n ity
Ġsupp lement
Ġlink er
Ġprec luded
ĠRes p
Ġra b
tothe cin
Ġkn ee
mal ignant
Ġmarg in
Ġchol est
f ont
ent re
og g
201 0
plant ar
ĠP ir
ĠPo isson
C MA
ĠP rom
ÐµÑģ Ðº
Ġstere ochemical
s keletal
iv als
Ġdys lipidemia
Ġharness ed
Ġint ake
Ġgam blers
Ġdifferent ly
Ġselec tion
P LL
ug s
ph osph
Ġb its
Ġdeg rad
inc ision
clud ed
Ġdec entral
ol am
Ġsearch ing
ĠPA K
ĠS US
ĠD u
Ġanhyd ride
Ġpost menstrual
um ble
F v
ĠInc remental
Ġfunction al
Ġmicrob icidal
ĠBalt imore
ĠCatar act
ĠC ould
Ġpobl aciÃ³n
Ġdes ired
ĠB FU
Ġcirc uit
E Cs
Ġmon soon
ĠL yn
aryn g
tif ied
Ġcongen ita
ĠG O
ĠW nt
Ġpro ce
P CS
Ġconspic uity
ĠF alse
ĠCH OP
re pre
Ġnorm oxic
' :
alt ies
plic ating
Ġmin im
cardi ovascular
Ġdro ve
ĠSh ould
Ġh ip
ĠDO PAC
Ġpro s
ovi tis
Ġut ility
z il
ĠN ature
Ġcommon alities
ĠM ode
ĠO GD
ior h
P resident
iti des
ĠB BM
o pp
ĠB CNU
r at
ĠCS N
form ance
Ġnor thern
ĠSI B
Ġconcent ration
Ġarrhythm ias
Ġisot opically
Ġf ont
Ġsonic ated
ĠB ud
Ġopson ized
Ġam id
ĠT m
Ġre vers
ĠII a
ĠM L
ĠBo NT
B ar
lec tion
HB c
Ġinter action
Ġlip opolysaccharide
ro cyte
Ġjur isd
enc ed
Ġsurvi ved
Ġspell s
Ġthrombo emb
d ep
f il
Ġcivil ians
ut ter
ĠCo oper
Ġregen erated
ĠBel ow
ĠCirc ulating
vec tion
Ġent rance
ĠV ps
ĠT oc
Ġcon vert
ors al
Ġun cemented
Ġcontrovers y
Ġencephal omyelitis
Ġcollec ts
ow ered
ĠRus sian
ĠMicro biology
Ġcontr ary
ĠC atal
æľ ¬
homogene ous
Ġar c
Ġne oplasm
Ġimmers ed
ĠFRA X
ĠExec utive
Ġunderl ie
ĠSomat ostatin
ĠOffic er
Ġgain s
ha w
Ġpack ages
transl ational
ĠIL K
Ġprog ressive
f arin
oneph rosis
ads orbed
w idth
es ts
ofib ular
Ġreserv ed
Ġar rangement
Ġnephrolith otomy
v ol
Ġdecom pression
Ġfenes trated
ĠSam sung
cycl ic
M EC
Ġprint ed
S PS
Ġcent ers
pl anning
Ġintrodu ce
ge ometric
ĠKenn edy
yl phenol
Ġodd s
Ġsure ly
Ġindepend ence
Ġpass engers
repre ne
Ġcef uroxime
ĠBe h
ĠSV C
Ġl oves
Ġsensiti zes
ĠESP N
Ġfac ilit
Ġident ical
Ġdo ct
Ġpartners hip
con f
Ġanest hetics
ĠH ide
Ġconf used
ĠC ow
rop in
M en
Ġduc ks
Ġw rest
ĠEV AR
ĠIraq i
rom etric
Ġh oles
Ġestim ators
ĠStud ies
Ġtrans catheter
ĠPV T
Ġpregn ant
ĠSy stolic
h ard
Ġmus c
Ġsign als
CG A
I X
ĠE urop
S MD
Ġpull ing
ĠA nal
Ġne arby
Ġgrad uate
Ġnomine e
I CAM
D ate
oste al
Ġper mitted
Ġâ Ĥ¬
Ġmim icking
ĠOk lahoma
Ġpec uli
St art
Ġwarm ing
Ġauthor ized
Ġal arm
ĠIU I
ĠC os
Ġcue ing
v an
amb urg
Ġgener ations
ĠLV H
Ġbiocatal yst
c ular
Ġinstr umental
Ġc yp
ipel ago
Ġdr agon
ach oline
ĠSoft ware
astig otes
ĠEd ward
d ifferentiation
ĠExtrac ts
Ġcontro ller
Ġwake fulness
Ġlamellip odia
S en
Ġcollis ions
Ġaff lic
ge red
Ġcyt ore
Ġprof essor
ĠV ik
Ġspin tronic
Ġappro ached
ĠVi ability
Th ank
trans formed
Ġglycosyl transferase
Ġcan ce
Ġconver gent
Ġform ula
Ġdichro ism
ĠSm all
Ġpo uch
Ġweak ness
o quin
Ġr amp
Ġexer ts
it udes
ĠBas eline
j ud
Ġbrill iant
Ġacc us
s ource
Ġ8 00
ĠE vil
no ise
S w
Ġhom eless
fr actions
we ek
Ġas cribed
B CR
i ens
ace ment
Ġsim ulating
Ġintr alesional
r ics
ody n
Ġbi ochemistry
identif ication
ĠTh ird
Ġantimicrobial s
T O
Ġorgan ic
Ġpresent ation
ag h
ĠDown load
v ation
Ġas sembly
or able
hold ers
ĠBern ie
Ġextinc tion
ĠHel p
Ġt ong
ĠF ight
Ġbe ach
B ook
ĠL ic
Ġr ush
vid e
ĠR ound
atch ard
ou p
Ġodor ant
bre ed
ĠMar x
Ġresis tivity
Ġcongen itally
Ġcalcul ated
Ġf les
Ġtooth brus
ĠDe vil
Ġgl uteal
ĠSUMO ylation
ĠSar ah
PP P
Ġdecipher ing
Ġoccasion ally
glyc osylated
0 83
Ġbul let
Av ailable
tol uene
g ate
Ġdisagree ments
Ġ9 1
Ð½Ð¾ Ðµ
Ġenfermed ad
Ġh osp
a Ã§Ãµes
Ġmetad ata
Ġprom ises
dr ink
ĠH IV
Ġpre diabetes
ĠSt adium
path ogen
ĠSt ock
Ġin let
ĠCorpor ation
ĠC arcin
ĠS MD
g age
ofil m
N G
Ġh omic
ĠC redit
S OD
Ġur idine
Ġs ne
ib l
Ġacc um
s uch
Ġterror ists
Ġconscious ness
ĠZ h
Ġdram a
ool a
pir ation
Ġlab our
ĠN in
ab ular
Ġut ter
Ġchond ro
op ause
Ġdemocr atic
Ġsim ilarly
ĠPl as
Ġass ass
Ġultim ately
co umarin
il ation
O d
Ġg est
Ġpenet rance
Ġp ann
Ġab road
Ġtoward s
Ġanter ograde
Ġmet ab
Ġf inal
KGR OUND
ĠO TA
Ġs orts
ak e
Ġper fluoro
Ġfl av
U B
Ġm g
ati dic
ĠNot hing
ĠA NF
ĠO d
Ġtow n
Ġmus ical
Ġperia pical
200 9
Ġclass ically
ĠCor tical
Ġdro ps
Ġinfiltr ating
ĠP g
oc ated
Ġvis u
ĠK yoto
ater al
Ġdy st
Ġflank ing
HA NES
0000 00
Ġrec om
Ġobli que
Ġobst etr
Ġg re
Ġunderst and
ĠOb jective
Ġload ings
Ġequ ality
Ġhy dro
Ġkne e
tit ution
Ġburd en
mis sive
Ġv ig
ĠLe ader
-------- ----
Ġcere mony
Ġf ighter
Ġact ors
Ġ æ
am an
F i
Ġbis phenol
Ġal ign
et hene
put er
Ġex otoxin
Ġe lder
ĠD ependent
ĠN SA
cin ol
Ġrepresent ation
Ġpolys ulf
ĠOnt ario
Ġpancre atitis
Ġeigen values
IT H
ĠA ges
usal em
SH BG
Ġharass ment
Ġmicros pect
itz er
ĠRadi ologic
Ġsy mp
Ã¼ ck
Ġbox es
Ġsub jec
ĠdÃ© c
ĠD R
Ġf requ
S b
ĠPMT CT
Ġman ifest
C ER
at re
Ġsumm ar
ĠL f
Ġ ^
re itol
ole in
Ġd ies
ĠÃ ³
le ton
Ġmiss ions
et he
Ġres olve
Ġfollow ers
Ġas c
Ġk m
l ord
am med
Ġsil ent
ĠAssoci ated
Ġnod ular
Ġtim ing
idne y
Ġprison ers
Ġmuc osal
ĠK ings
Ġplasm id
Ġt atto
ĠF ive
id ase
ĠOb ese
Ġtow er
ĠN eu
emb rane
Ġnucleocaps id
Ġappro aches
Ġli ve
ĠT otally
Ġprecise ly
he imer
acetyl glucosamine
Ġb ureau
Ġput ative
AB R
ĠM other
Ġcharacter izations
ĠI ss
Ġro c
Ġkey board
eth idine
it ual
Ġheart burn
Ġfund ed
n ae
Ġstay ing
iti dis
ĠÐ¿ Ð¾ÑģÐ»
Ġpsych ological
Ġmal treatment
ĠVir uses
ĠRR M
Ġm ile
Ġphylogen ies
ĠPeriod ontal
ĠLe on
Ġandrogen ic
ĠBar b
Ġinf ras
w ill
Ġinstit utes
Ġw ider
ĠAtl antic
Ġt ill
Ġexcre ted
ĠR ome
ke phal
ro t
ĠObserv ations
Ġaccomp an
Ġobst ac
tis h
Ġfl our
ac o
W orld
ĠExp ress
ĠY u
C or
Ġple ased
Ġcus p
part y
ĠStudy ing
Ġpoint ing
ĠE ORTC
Ġinf lation
Ġro y
Ġ ),
ain er
se ous
Ġwedd ing
Ġspect rophot
orm on
Ġrequ iring
Ġqual ified
Ġse gment
EN D
Ġs izes
e als
ot ensin
Ġcor rupt
Ġst rom
ass ador
ro ver
Ġcele b
Ġdream s
ĠM ess
se arched
Ġcheck ing
Ġbut anol
Ġinf lex
ĠV ersion
on ant
ĠCD T
Ġprep aring
Ġmyomet rial
Ġact ively
Ġanhyd rase
ĠD iff
Ġm cg
Ġl ux
ĠFour teen
acet amide
ĠW inter
Ġlifest yles
act eria
Ġas partic
ĠN E
Ġdep uty
Ġtrans gender
Ġsum mary
Ġin her
er ies
ch ar
ĠY an
erv ical
Ġkn ock
Ġhal f
ĠP ath
ercul osis
Ġl ip
Ġnur ses
Ġclus tering
roll er
Ġhen ce
Ġimp ression
Ġcelebr ate
Ġsl ide
Ġgu ests
Ġcl ip
F S
ĠR OP
Ġsav ings
Ġneuro chemical
Ġcapt ain
Ġleg acy
ĠDen ver
Ġanthrop ometry
Ġw ounded
tab oola
AC T
Ġpurs ue
Ġo xy
Ġ q
Ġsem i
Ġv ascul
ĠN eed
act ant
ĠAff airs
Ġob sc
ĠC LP
Ġcheck ed
Ġpo ver
Ġd ual
ĠCI N
HR H
C ode
Ġnucle otide
B arr
Ġlymph oblastic
ĠM D
le m
Ġir on
ult y
Ġoccur s
ĠA RS
ĠÂ ©
Ġmon ochrom
ĠEl izabeth
pro s
Ġcent uries
ard ed
s rc
ĠNorwe gian
Ġev ident
enn is
at in
Ġunemploy ment
ĠMar io
Ġfor age
Ġint im
Ch rist
Ġbi ological
Ġsold ier
ĠAdd ed
Ġm ath
ĠG il
oc ervical
Ġbi as
ĠS s
ĠJ CV
Ġd ating
Ġbur sa
ĠPC NL
ĠO cean
Ġlymph angi
tetra fluoro
ĠAff ective
Ġm ice
Ġgeneral izable
Mac aca
M us
Ġrecombin ase
h ire
ĠP HD
ĠT es
ad ores
Ser ver
az id
Ġopening s
lim ited
ĠII b
ĠAff ymetrix
S ize
9 95
Ġmet ers
Ġrock et
z ine
es see
Ġagon istic
Ġcertific ate
epid emi
ĠIran ian
Ġbrack ets
Ġorganochlor ine
AS S
erm al
æĸ¹ æ³ķ
L Cs
Ġgr id
Ġ %),
sub stance
ac quisition
D ec
Ġaid ing
Ġro lling
ĠRA G
com mun
ĠSwed en
Ġspermat ogenesis
b ury
Ġtiss ue
ane al
Ġrac ism
z ym
EBP Î²
ĠL ocal
develop mental
Ġdol phin
Ġmyster y
ĠFif teen
ĠM ercury
osuccin ate
Ġexam ine
mat ine
F lu
Ġst em
ÑĦ ÑĦ
ĠT yro
Ġs its
yro id
ĠC reatinine
Ġhop ed
Ġneuro filaments
ot ing
Ġenter ococcal
Ġdial ogue
phag ia
Ġto uched
Ġpers u
Ġph akic
W atch
Ġtax ane
Ġallergen icity
l ay
ad ditive
Ġapoc ynin
M AN
Ġbiodegrad able
ophil um
r ides
Ġch ronic
P CA
o ablative
ĠPort land
mark et
ĠS EC
ĠGr b
Ġparalle l
es trus
Ġsc andal
et rexed
Ġcar ries
Ġphenomen on
h uman
ack er
ĠO x
Ġretire ment
tain ment
ov ie
ĠG ear
Ġd uties
Ġdo se
Ġsc roll
M B
in f
Ġsa uce
Ġexpos ure
Ġland scape
red dit
ĠChampions hip
ĠRed dit
al id
Ġco in
Ġover s
Ġpost ing
ab out
Ġf el
and y
Ġamend ment
Ġb old
Ġfocus ing
e ffect
Ġimmun o
G R
per itoneal
Ġde emed
Ġsc enari
Ġrecommend ations
Ġste pped
Ġvot er
ĠDe ep
ĠInst agram
Ġmoder ate
ĠMary land
Ġrestrict ed
Ġc tDNA
ĠM B
ex amic
ĠCh all
est ab
tomy c
Ġto b
ot roph
Ġdis organization
Ġc ir
Ġchitin ase
ĠO cc
çŃ ī
ĠE ver
B MD
Ġsur al
Ġcoll aps
ĠP LA
Ġduplex es
IN FO
an ual
= -
ĠP ict
ĠAcc ount
n c
Ġo ught
Ġpers pective
Ġex port
ĠC anine
Ġdr unk
olip ids
ĠS chem
( '
le a
ĠD DS
Ġw ise
ĠM ort
ĠB lo
ne cess
ĠR VA
Ġan cest
ĠL SA
ĠInc re
ĠAg s
Ġfrequ ent
Ġlag oon
m ir
Ġ Ġ
fel d
Ġinterpret ation
Ġsubstr ate
Ġu rologists
ĠFibro blasts
Ġdepend ent
Ġmul tivari
Ġzwitter ionic
Ġco ins
Ġsuccessful ly
ĠS BS
ĠB ol
om ann
V ideo
Ġcortic o
Ġmod al
ĠJust in
rapy ramidal
Ġantib i
Ġfat al
ophys in
ur ans
Ġcook ing
Ġein er
ĠLRR K
Ġconf usion
çĽ¸ åħ³
ening eal
ip her
Ġexperi ential
Ġcust ody
ech lor
ĠMor gan
Ġin growth
om ach
ĠGovern or
Ġrestaur ants
el ing
uk ast
Ġacknowled ged
Ġexhibit ed
ĠIF I
Ġthe r
Ġbi o
glut amyl
ME L
Ġgen es
Ġdos es
Ġconcentr ic
Ġech oes
ch ing
opl asm
ĠCh or
He y
Ġoptim al
Ġflow metry
Ġtact ics
Ġol d
Ġa PL
ĠMex ican
ĠInf ected
Ġv end
Ġdoc etaxel
ilum inescent
Ġhe s
oderm al
ĠRIP K
qu er
Ġextrac tions
Ġnot ing
m obility
Ġwhee ze
ĠCamer on
Ġbio accumulation
ĠPH Q
Ġtarget ing
ĠH cy
estab lish
ro ck
oscop ic
ĠObstetric s
ros omal
Ġcred its
po int
ad hesion
Ġb raz
Ġemot ions
ĠIn di
Ġhy phal
ĠSR BC
Ġrepresent atives
ĠE CV
C HA
new s
Ġp yr
ĠAtom ic
Ġlegisl ative
Ġsecre tag
Ġrem oving
Ġradio iodine
Ġabor ted
Ġtweet ed
Ġl ights
ĠCar ter
Ġinters persed
ĠF ixed
Ġfor cing
ĠEle vation
Ġspeak er
ĠCalc ulated
Ġm ales
c ian
ĠViet nam
Ġe tomidate
l ined
Ġmo v
Ġconcept s
enol pyruvate
Q Tc
Ġvo ices
ikung unya
Ġmy coplasm
o ir
Ġsalic yl
ĠT rib
Ġinterpre ted
PU FAs
W he
ab ine
M ean
ĠJer usalem
Ġinsuff iciency
is othi
ĠS ant
ĠD CR
Ġc ul
Ġloc o
ĠH UT
Ġl ady
aren es
ĠIn spec
ĠHaw ai
Ġulcer ated
Ġprof essors
Ġar ts
Ġhaemorrh agic
nit ines
ĠIn n
ĠEx tension
ĠFrancis ella
ĠMach ine
Ġplant a
D AB
ĠEm peror
Ġnon randomized
ĠML ST
Ġon lay
Ġsl ot
Ġtap ered
sk i
ub ility
g ly
RI T
ĠPro cess
II I
prednis olone
Ġathlet es
Ġg rant
ĠTem ple
ĠRep resent
Ġpres c
Ġt ons
Ġgold en
Ġp unch
Ġcle ave
ĠG R
Ġto c
iver pool
ĠB iod
Ġen act
det ected
Ġlob by
gl ottic
Ġdivor ce
Ġm os
Ġprioriti zation
Ġhamartom a
Ġpick ing
op elvic
ĠCT CF
Ġlif etime
Ġsuic ides
Ġcomplement ing
Ġcogn itive
Ġnoninvasive ly
Ġwait list
E ach
Ġprioriti zed
f ailure
z o
Ġd ub
Ġcons ists
Ġr uling
ol n
Ġgenic ulate
Ġf estival
] /
am ous
c hest
Ġint ellig
Ġcytotox ic
w ords
Ð½ Ð¾Ð
ĠSm art
Ġf rail
Ġde le
Ġmillisecond s
Ġl apt
ĠD EP
Ġmag ical
ĠS in
b us
ur ities
Ġin valid
igh th
condition ed
ĠH TS
ĠRub y
ĠPR E
ĠS ure
K g
ol ving
ĠCH X
Ġj un
V LDL
O ST
rad ural
Ġimp osed
Ġrehabil itative
Ġast ron
ĠTK Is
Ġcor rel
ï ¬
ĠN S
ĠL GE
ĠK it
Ġnutri ent
arach id
ĠF uture
Ġclos ed
ĠB AV
b urn
Ġtraum atic
Ġexcision al
Ġimm une
ati ble
oc us
Ġac cep
Ġcour ses
Ġacet ate
ĠSt ring
Ġhyper tensive
Ġle an
Ġper for
Ġg host
D G
Ġout comes
Ġte aching
Ġdistribution al
Ġexp ense
Ġmicro environmental
Ġevery day
ĠØ§ÙĦ Ùħ
ardi zation
Ġaccept able
Ġmy omet
Ġhomod imers
A h
Ġpath ologists
b anding
Ġequ ipped
Ġoste ogenesis
Ġm ifepristone
Ġantim ony
Ġor ange
Ġv owels
Ġprov okes
F R
ĠV PS
Ġargu ably
ĠD utch
en in
Ġmultiplex ing
Th ough
of luorescence
ĠRob otic
ĠR ank
Ġtra jec
Ġe e
Q U
Ġreg istered
Ġfacilit ator
Ġinter trochanteric
ĠRober ts
Ġhol der
wh at
ros in
W NV
re nd
c ip
orb ate
Ġpre conditioned
Ġdisapp ear
Ġsilic on
Ġl ind
Ġ5 21
Ġsp awn
ĠS ED
H X
ĠL am
Ġme floquine
Ġo estrogens
o is
yl l
ĠSh andong
pos itivity
Ġdes erve
inn ed
os tically
ĠMed iation
Ġmin imal
Ġdeter g
T HA
ĠMP L
Ġnerv ous
è¾ ¾
OT s
ĠW ould
Ġcoll apsed
Ġesc ulent
Ġro ok
R EM
ĠFibrin ogen
ĠV ancouver
Ġneurolog ically
Ġinnom inate
Ġres ign
ĠU pt
Ġhemat ogenous
Ġda unting
sh ire
ĠW ilson
Ġrational ized
Ġneuropath ologic
ĠW orks
cyt osine
dichlor o
re acted
Ġalloc ating
ĠB uild
ere l
ĠCory ne
oc co
calaure ate
Ġafford able
ĠAPA CHE
æ ´
ĠSt atins
n AChRs
ĠG ary
Ġdys morph
Ġs kelet
v enti
ĠAren a
Ġperturb ed
Ġs elling
Ġh anging
Ġsub mandibular
pro ate
Ġimpl ications
ĠER CP
ĠI MI
ÑģÑĤ ÑĢ
ĠS ong
pregn ancy
ĠS CG
Ġcaud ally
Ġmain taining
Ġfluor o
Ġtill age
Ġgu ards
a uc
ele ments
Ġunm asked
C ON
CS F
. âĢ¢
Ġder ived
Ġexecut ed
Ġthe ories
Ġqu oted
ĠAnd re
og a
sel ess
in fo
ĠBel g
Ġt ears
ĠSur v
Ġbirth day
ig ious
im mer
Ġphys is
Ġspect rum
ĠET T
Ġthromb oses
Ġarchitect ure
Ġophthalm ologist
Ġadhesi veness
Ġrec ruit
Ġcyt oplasm
Ġreti red
o cephalus
arm a
Ġroot s
ĠP BR
T able
Ġr Hu
Ġcor rug
Ġmon sters
ĠP MR
Ġprec luding
ar vest
ĠG ov
ĠRNA P
Ġretrop ubic
RI S
Ġdest ination
ĠS tructures
Ġperic yte
Ġattract ive
prote obacteria
hom ocysteine
Ġf oss
ACT H
0 94
ĠMore over
Ġes te
Ġver at
Ġpres ents
ĠAmong st
ĠDi ets
TH E
Ġsampl ing
ĠVer sion
ĠÑģ Ð¿
Ġrep ly
Ġinter n
ĠG vHD
pt on
Ġenti re
Ġembry ological
Ġc um
Ġhydrogen ated
Ġdel ight
7 69
Ġn l
Ġaffect s
ĠL Ds
Ġdon ations
Ġphosph opeptides
ĠT oy
ĠHist opathologic
Ġalk ane
ĠH im
ĠMar fan
Ġmitig ates
M ENT
ĠCA H
Ġover come
N MDAR
it ched
tr on
Ġpneumon ectomy
ĠFant asy
od ds
Ġass istive
ĠH at
Ġtrop omyosin
ĠBe ast
Ġneurosur geons
b ott
ĠC EP
Ġinvestig ations
Ġdep icting
R un
b ular
Ġhun ting
d i
f und
Ġs essions
est yle
Ġport ray
oid s
con traction
Y eah
lis h
Ġdeb ul
Ġcommun icate
ter ol
Ġre hydration
Ġcom edy
ĠCom pliance
ĠY ang
ro tation
Ġbel t
emerg ent
ĠMar ine
Ġexud ate
tun ing
Ġpredict ed
ĠP aired
Ġmechanis tically
Ġtrypt ase
Pl ay
opor osis
ĠAD MA
Ġimportant ly
Ġrecal cit
Ġmid life
Ġremark able
ĠM agnetic
Ġpent obarbital
Ġcyst oscopy
Ġelim inate
ĠC KD
Ġan ces
Ġtri acylglycerol
ĠĠĠĠĠĠĠĠ ĠĠĠĠĠĠĠĠ
D avid
Ġpassive ly
Ġappra ised
Ġb ind
Ġnon pregnant
ĠN iss
V ID
Ġpneum on
Ġadvoc ates
Ġfront otemporal
ĠG aza
ĠGAB AA
im p
% ],
D B
til is
ĠS irt
ĠN a
Ġposts ynaptic
avail able
form e
ĠSim ilar
Ġenh ancer
Ġforsk olin
I ES
Ġolig odend
in hibition
Ġchar ity
ĠMD D
v as
ĠC ys
m ath
ĠU ni
osa ic
Ġâ ĸ
ĠIniti al
ĠS es
ok er
t osis
nd um
ir radi
Ġvasoconstr ictor
Ġcap s
ĠCX CL
ĠAn dro
ĠH al
Ġacces sibility
Sm ad
2 000
Ġd odec
e an
Ġn al
Ġfle et
Ġphosph or
Ġrec re
ai ly
R ight
Ġad ap
Ġsleep ing
ij ing
k ind
anol amine
Ġdesign ated
ĠRESULT S
Ġinter ventricular
Ã ¤
Ġen ucle
Ġsequest ered
Ġanim ation
ke e
ĠInt rodu
ĠPro ximal
Ġ/ >
Ġdelay ed
Ġtrem end
Ġcur ious
U se
Ġle ct
d am
Ġinnov ation
Ġkne es
ĠPoint s
rele ase
ĠImpro vement
Ġload ing
Ġeti ologies
Ġdisp ute
ct ic
ird s
ĠB Y
Ġn urs
ĠN IS
ĠVal ue
Ġtransfer able
ION S
tumor igenic
hym ena
ĠH um
b rachial
Ġhirs utism
Ġtem plate
at ose
ĠAbl ation
m ers
Ġabor tion
ĠA GR
Ġappear ances
ĠÐ¿ Ð°ÑĨÐ¸ÐµÐ½ÑĤ
ĠS par
ĠEnter tainment
ĠSe lected
Ġco urt
Ġhex amer
Ġtransl ation
Ġinduc tively
ĠJoh ns
Ġsa ke
Ġpl oidy
ÐµÑĢ Ð¸
Ġbene ath
c DNA
plan ation
Ġin hib
Ġ ÙģÙĬ
Ġrap he
Ġs ist
Ġe uro
or and
abet es
ok eratin
Ġstud ying
drug s
ĠM as
Ġhex achlor
Ġper ceived
Ġrec irc
æķ° æį®
Ġexam ined
Ġpossi bility
Ġspars ity
Ġe ager
ĠT rin
Ġco aches
ĠS NO
Ġim per
Ġemphasis es
ch i
NL RP
Ġprodu ces
Ġautomatic ally
5 85
" ).
Ġcoun ting
Ġag ly
ĠEvery one
ĠAs pergillus
ä¾ ĭ
Ġm unicip
Ġradi ologists
Ġchondro itin
Ġg irlfriend
fluor o
Ġcategor ization
Ġh ire
Ġpharmac ists
åŃ ¦
ĠV ice
Ġglycos ylation
Ġsu itable
Ġsubstit u
op y
ĠT reatment
Ġin equ
hydrox y
ĠD uke
Ġanti ser
f ish
Ġsensi tization
f irst
ĠO bs
ĠPA Hs
Ġinter ior
Ġle ishman
ĠBru ce
Ġnucle ase
ĠR y
Ġanal ys
Ġconsider able
Ġfore cast
Ġdatab ases
Ġf ert
ors hip
ĠD rug
ĠA LL
: "
Ġmening i
th ur
ĠM ail
Ġball ot
Ġinst antly
ĠCh annel
Ġp icks
ĠLT x
Ġ198 9
Ġtol butamide
Ġt ent
sc aling
ol i
Ġane uploid
ultras ound
Ġcivil ian
Ġca rotid
Ġuve itis
Ã© li
b ling
Ġnut r
ot ag
ell o
Ġpall idum
Ġdiaph ysis
b u
uter y
Ġin ch
PC B
Ġlog o
Ġcollim ator
Ġcooper ation
Ġwal ks
Ġinvest ments
Ġimp rison
ĠF estival
ĠK y
Ġleg ally
ork head
Ġg ri
Ġintram y
Ġgly cyrrhiz
ch arg
ç¾ ¤
ĠImmun odeficiency
S l
T OC
Ġphytoh ormones
Ġthreat ening
Ġsupervis or
R FP
du ction
Ġautophag ic
éĩĩ çĶ¨
fl ow
oxic illin
ous al
Ġdismiss ed
Ġradiolab eled
hes ins
ibr aries
c ap
e le
ĠL ym
ĠMc G
ĠHar vard
Ġimperfect a
ĠConserv ative
Ġdiscon nected
ĠC BS
ĠBrill ouin
p ng
ud inal
å ²
Ġro ots
Ġperox yn
or ice
ĠH aving
ĠTNF i
umb led
CN Vs
ĠF un
Ġvibr iss
\ /
ĠUltras onic
ĠS earch
Ġcing ulum
ple x
Ġpi ece
ostrong ylus
Ġdiscuss ing
Ġamel ior
pro duced
I MA
Ġcontin u
Ġattem p
Ġdisrup tions
ĠT ai
Ġprotozo an
ĠW ik
ĠEight y
PA Hs
F ree
ĠSpec ific
Ġdos ed
f it
al ignment
Ġref use
E SC
Ġmanag ing
ore ceptors
m ovement
Ġsy nd
ĠGTP ases
umin ation
ip edia
C i
olum etric
w alk
Ġpapill omas
Ġprofession als
ĠP PE
ĠRhiz obium
Ġguid ance
Ġmic rom
po inting
Ġunivers ities
ed iatric
Ġas semb
unt u
F inally
AS E
ĠAut o
ĠH ad
Ġann iversary
L D
ĠD ur
Ġdiscus s
ĠUlt imate
ih ad
pro duct
Ġtrans it
Ġmethyl ene
Ġrest ore
ĠTra uma
Ġexpl aining
ol ateral
Ġass et
Ġtransfer red
ob tained
Ġbur st
Ġsed atives
ap olis
ĠR CTs
ĠMag azine
Ġsp ik
ĠC ra
ĠB R
ad ults
gg ed
ry st
ĠH E
M ich
y el
b et
Ġbio avail
ĠL ady
Ġmicroar ray
yl um
yl ate
erv es
at osis
Ġme ets
Ġfibrobl ast
wh ite
ä¸ ĭ
L og
Ġag arose
Ġdiffuse ly
Ġcorrespond ing
ĠTrans cription
Ġsemiconduc tors
S OS
Ġins isted
ĠAc et
iterpen oids
ĠD imension
G G
Ġadsorb ents
Ġelectro grams
Ġsurround ed
raz ole
ol ines
Ġt ens
p eptide
Ġfol ds
Rev ised
Ġl ane
Ġaug mentation
tr im
otroph s
Ġinsuff iciently
Ġco inc
æ ²
Ġinst alled
h ome
Ġfilament ous
Ġplot ted
Ġexist ed
ĠS OX
ĠSchistos oma
ect ed
ov entricular
ĠDou ble
ro ids
lam m
Ġske pt
ex p
Ġper ception
Ġhistological ly
ie v
ĠBe ing
o ft
Ġbi oc
Ġadop t
Ġultrason ographic
ĠD elt
. :
Ġherni as
ĠPsor iasis
] ;
p rac
ĠL IP
Wind ows
Ġ %.
Ġsatell ite
ĠH OX
AS H
ĠG PI
Ġinf ant
ĠG olgi
lic e
d escription
Ġmoun tain
ĠMe anwhile
Ġadap tor
c m
Ġseek s
oc a
ĠT reat
act or
Ġtob acco
ĠN orm
ĠĠ ĠĠ
em ption
ĠEx ogenous
Ġfl esh
é ħ
Ġj e
Ġpoly chlorinated
o op
ĠCons ecutive
ĠS tim
ĠHe aven
Ġbe ating
an im
ĠAB CG
Ġgather ing
hip pocampal
Ġnon verbal
Ġcult iv
Ġfill er
Ġpsych ophysical
ĠDic ty
G O
osp ira
ĠBeh Ã§et
ab e
ĠJon athan
Ġjas mon
ĠSaf ety
Ġbad ly
pro t
Ġcho osing
Ġcontact ed
ĠV F
Ġqu it
Ġdist ur
Ġst ir
Ġto ken
D et
ĠP a
Ġfunction ality
em ble
00 3
ĠU SA
Ġap nea
s ome
men opausal
Ġlimit ations
Ġstain ed
Ġphyt oh
Ġmet h
Ġpay ers
b uild
Ġres pon
Ġtur keys
con fig
N T
re ll
or ith
ble m
ĠM om
Ġveter ans
ĠH u
ap enem
Ġtrend s
Ġlens es
Ð¸ Ðµ
are r
Ġpathogen icity
ĠP AS
ĠG iven
Ġcigaret tes
Ġcrystall inity
ĠCa ption
Ġosteocl ast
m ay
AS T
Ġs ind
Ġwond ering
Ġsep tal
Ġm enses
ĠCl ark
olec ules
oph aryng
n ormal
ĠLit tle
Ġir idium
MA N
Ġsepar ated
ĠSym ptom
PR E
Ġdes p
Ġl umbar
Ġdi al
ĠSym p
st ic
Ġhe red
Joh nson
b rew
Ġr ules
ĠH CB
Ġrel ating
D awley
Ġfa ulty
ĠN ik
Ġsymmet ry
Ġsubend ocardial
ĠF arm
Ġars enic
Ġenthus i
Ġoxygen ation
g ood
ĠI CD
d eb
an oma
Ġactiv ist
Ġun translated
Ġm art
Ġbronch iolitis
Ġexplos ion
ç ´
ĠEconom ic
Ġmonit ors
ĠD AA
L ink
ĠL PL
rec ognition
Ġins ight
co valent
Ġceramic s
ĠE agle
Ġconven ient
Ġresid ents
ĠLanger hans
Ġstim ulations
Ġret ested
Ġcounter part
aren ess
Ġpost ulate
CX CR
ec oxib
su pport
on tal
ĠC AC
Ġam bly
ĠV irt
trans plantation
az em
ag en
on as
ĠTenn essee
ĠSim on
ĠA ward
Ġmill ed
OC K
ĠF igure
Ġoverse as
Ġpr ide
Ġdi hydropyridine
ĠC as
ĠSL NB
n ote
Ġcorro sion
ĠProp ofol
m g
ĠCT N
C urrent
Ġdispl ays
cont ent
Ġmatric es
Ġtravel ing
iforn ia
Ġhosp itals
å½± åĵį
ĠFin ancial
Ġselen ite
ĠP ast
Ġnym phs
Ġdefend ant
P CV
ĠMP M
Ġstream ing
Ġtooth p
m ble
Ġtransmit tance
Ġtyph i
ĠBer lin
ĠFox O
uk i
u ent
Ġdist ribut
ĠGen eration
Ġpor ts
Ġant ib
rom atous
Ġcytore ductive
Ġch ocolate
Ġplan us
Ġthym ocyte
ĠCast le
y te
ĠS NS
Ġinter rupt
opram ide
ĠR ow
ĠC PD
Ġconvers ion
ĠLe uc
Ġbug s
ÑĥÐ» ÑĮÑĤ
ĠR ather
li est
Ġproce ed
L Y
ĠJe an
ĠJan us
com mon
Ġhotsp ots
ak h
Ġamalg am
Ġbiore mediation
Ġ1 30
enti ous
ĠP X
ot ton
Ġarthrop ods
ĠDe an
Ġfoli ar
Ġam endment
ĠCon stant
Ġgame play
Ġhind ers
ĠWar ren
encephal y
od a
ĠC MA
Ġhigh lights
EV s
Ġparag ang
Ġir re
N GF
ĠNAT O
BD I
Ġball s
Ġg anciclovir
Ġdemand ing
Ġpar af
T FA
U RE
Ġext rapyramidal
ĠL uke
Ġchlor promazine
F igure
st op
on ia
z one
iz ers
res tric
ĠW R
Ġt RNA
Ġaward ed
Ġaeros ols
Ġregul atory
Ġrhiz osphere
pl acing
ĠH art
re hen
ĠS N
pl ing
Ġs our
Ġpoly styrene
ĠP ixel
ra g
Ġsplen ectomy
us ive
ove ment
Ġf et
ins ically
ĠS ent
Ġtrach omatis
il iter
Ġautom atic
or igin
Ġf er
vern ment
par t
ĠKh an
T ON
f ather
Ġextraord inary
th rop
Ġbac ul
ĠP ython
ĠE IA
ĠG PU
Ġsex ually
Ġdesk top
ĠConsid ering
it ivity
ĠAnton io
Ġo rient
Ġe ars
ob by
ous es
vertis ements
Ġcorrec ting
Ġmanufacture rs
ic ient
min ute
Ġconv iction
Ġab domen
Ġg arden
rol imus
p ublic
Ġsatisf ied
Ġrapid ity
f old
O K
Ġin hab
ĠCV I
ĠTh ink
Ġl ambda
ĠHA E
Ġprogram me
ĠOverex pression
Ġst omach
Ġcoord in
Ġh oly
Ġth reshold
Ġr het
Ġprog rams
Ġser ial
Ġemploy ers
Ġchick en
ĠEvery thing
ra h
Ġb other
ĠA NK
Ġbr ands
Ġcol icin
Val ue
çĽ® çļĦ
ĠT ed
ĠIn tran
ĠPlan et
Ġag lyc
Ġp ink
Ġintrac avitary
ĠFurther more
Ġox ys
s a
urren ce
Ġcryp torchid
P E
mon ophosphate
re ck
Ġfluores cence
rist one
ĠUS D
c rib
ĠS urg
ot te
Ġtr act
ĠML H
Ġ& &
Ġradi oluc
Ġland ed
PD R
g ets
ĠMR E
Ġprodu cers
eless ness
Ġhealth care
st ability
Ġdomin ant
Ġdest ro
Ġam ended
g us
ch ron
ĠAs p
im ol
Ġf its
âģ »
Ġinter rater
ĠSy d
Ġgran ulation
ĠAuthor ity
ĠTod ay
AT CH
Ġg rup
b owel
Ġfight s
ĠAnti body
ĠL LC
Ig A
Ġ-- -
ĠCor p
Ġtox ic
ĠP CDD
spe cific
v ascular
ĠC orn
ĠChe l
ĠP aget
Ġtele phone
Ġcinn am
ĠP ant
Ġmutagen esis
case in
Ġmyster ious
Ġalk yl
meth anol
aun ch
Ġres orption
Ġhem odynamically
od ox
Ġhand w
med ia
Ġtit rated
Ġwitness es
otyp ically
Ġenth usi
ag u
is tein
ĠSup plementation
Ġquestion ed
Ġbur dens
Ġmulti organ
ĠBre xit
ĠAP OE
Ġattrib ution
ĠRem ember
s paring
Ġenanti omeric
ene z
Ġfor amen
Ġend orse
ĠGen erally
iat ric
Ġbat teries
Ġconf luent
ĠId ent
PC OS
Ġridic ulous
inc reased
1 10
Ġpr ayer
lab el
Ġscient ist
Ġhydro chlor
Ġ19 50
it ron
ĠA qu
Ġcr isis
Ġmy ocl
Ġunder ground
Ġam iodarone
ĠU FC
Ġlys ate
oph ase
m are
ĠC VA
ĠL ater
Ġcapac itation
w ich
Ġsubsc rib
Ġhost s
Ġer r
Ġgr ants
ant om
Ġsum mon
ear ly
ĠC lear
ĠPr im
Ġdil ute
Ġsusp ension
Ġhepar an
Ġguarant eed
sub strate
app er
ĠPD B
Ġr ice
è® º
ĠSe an
Ġhepar in
ti des
ĠSh in
Ġsensi bility
Ġrefere ndum
Ġfl ed
r ust
Ġ3 60
ter y
Ġeryth romycin
Ġsh ocked
Q oL
sy nt
B R
Ġunf olding
ĠO il
Ġantiv iral
trig g
ĠAll ah
Ġsci ence
Ġhydroxy apatite
3 95
Ġpart ly
pro BNP
ĠclÃŃ nic
Ġign or
Ġb rom
Ġneph ritis
in ib
Ġtrans mission
ĠFe b
Ġmy o
ĠBi obank
Ġhom osexual
Ġmech anical
ĠAL F
ivers al
Ġhemorrh ages
Ġhop efully
ĠPostoperative ly
ãĤ ¤
Ġless on
L eg
Ġ ..
Y et
t able
app ropri
Ġsynchron ous
re tt
Ġsub cl
Ġbo ards
Ġresid ency
Ġincor rect
ĠSystem ic
AV R
Ġb acteria
Ġac kn
Ġpromp ting
ar u
ĠCA M
am ac
Ġtransfer rin
Ġsn ap
.' "
ĠPhosph ate
Ġpar ad
t em
Ġfluores cent
he art
Ġcataly tic
Ġpredic tions
Ġav ailability
inf arc
Ġw isdom
Ġadj uv
Ġ( +
ĠMul tid
ĠT orr
Ġpri est
Ġchem otherapeutic
Ġdiss imilar
ow ering
ĠÂł ĠÂł
cin ation
inter ventions
O pen
ĠU rine
Ġpara hippocampal
Ġsp an
X RD
Ġparam eter
but yl
ex y
Ġconv ince
Ġlymph omas
Ġco x
Ġ( %)
ati v
r ac
Ġconc ave
Ġf o
acc el
Ġsafe ly
Ġpor tal
ĠTT X
Ġconver ted
Ġsphen oid
ĠOlymp ic
ĠH AT
Ġres erve
Ġmanus cripts
Ġhe aling
ĠM ine
M ax
Ġin herent
Ġep im
ĠGra ham
Ġultras onography
DA I
Ġinteg rated
ion ine
adv anced
D em
qu am
Ġpip eline
val ine
Ġapp lying
eth nicity
Ġdes ar
Ġem bed
ĠCharl ie
Ġc ave
200 8
Ġcons ensus
Ġretic ul
Ġre wards
P al
ĠHT ML
ac al
Ġpopular ity
Ġmid face
look ing
Ġnanoc rystalline
ĠSw ord
Ġzoon osis
ĠAr ts
' )
Ġelect ron
ĠGroup s
clus ions
R OC
Ġinteg rity
Ġexclus ively
Ġgr ace
Ġtort ure
Ġburn ed
tw o
Ġ18 0
P rodu
Ġpaper s
Ġent reprene
raph ics
ibr il
Ġg ym
Ġden uded
ric ane
IR E
cons umption
ĠT am
Ġnanos tructure
Ġpredom inates
ĠSn O
Ġadministr ative
ĠCop per
ĠSa O
thym ocyte
Ġmanufacture r
ÑĨ Ð¸
ĠF GR
ĠH PP
Ġ vel
Ġprogen itors
Ġanne aled
ĠN i
Ġge omet
ĠT oward
Ġisol ated
oc ins
ĠMedic ine
Ġinf ec
ĠP ter
Ġback up
pl ied
Ġhomogene ous
ĠH ymen
Ġpromot ing
t ure
Ġmulti disciplinary
Ġmo tive
Ġcommand er
Ġde generation
Ġfle e
Ġimp acts
ĠRus sell
os ystem
Ġforg otten
Ġsup pres
ĠMiss ouri
K r
Ġres idence
Ġso fosbuvir
ĠP OF
m ons
Ġadi ponectin
ĠMor ax
ĠS plen
Ġrese mb
åĬ ©
Ġvibr atory
Ġw and
Ġem met
Ġclock wise
Ġmeaning ful
Ġpoly angiitis
T ox
P T
astic ity
ai k
Ġb ol
Ġphot op
èĤº çĻĮ
Ġhe lic
ĠÐ¿ÑĢ Ð¾
89 1
Ġs RNAs
Ġwealth y
ĠÐ¿ ÑĢ
ĠRT I
ĠS NB
Ġr ifle
ĠCEA CAM
Ġanti parasitic
str ong
dem ethylation
ĠPro portion
row ing
Ġconform ers
Ġtransloc ates
phenyl ene
pl an
Ð¸Ñ ĩ
Ġbiocatal ysts
Ġsociodemographic s
as ury
ink age
Ġa rab
ĠGastroenter ology
âĢ¦ .
Ġfunctional ized
Ġren oprotective
ulinumtoxin A
Ġexpand ing
Ġopportun istic
omon ads
G c
ĠHam ilton
T K
Ġdysp eptic
ell ifer
Ġrece ives
Ġmetaph ysis
te aching
S I
Ġentit led
Ġaut opsied
eat ures
PG J
ĠAn im
RE E
P ut
Ġamput ated
Ġbrief ly
ri ve
Ġstim ul
Ġ`` (
Ġ __
Ġch ip
Ġha z
Ġpartition ing
Ġpri ze
ĠTh ings
AC E
ul in
d ict
ok u
Ġassoci ate
ock ets
y outube
St ory
ateg ory
Ġm ild
ail ing
or ts
ĠY e
Ġhyper methylated
O rig
ĠIntra ocular
ĠK a
ĠAT S
or ig
ect asis
ĠAN COVA
Ġpropag anda
æ Ł
IC F
Ġan onymous
Ġkary otypic
Ġstrugg led
ĠTrich omonas
Ġout rage
Ġtumor ous
AT ED
ĠBe ijing
r ary
J NK
Ġle ather
Ġcomplement ed
Ġworld s
Ġco oler
Ġbroad er
ĠTrans criptomic
12 5
po lymer
id al
Ġantic ancer
ĠBet ter
Ġeffective ly
Ġstimul ate
Ġt ear
E xt
Ġpropos als
Ġit er
form ans
ĠSqu ad
int ro
Ġvol unt
Ġsynt heses
m i
D id
ĠP u
p in
NO T
Ġspeak ers
Ġalle vi
Ġb orders
Ġfig ured
us ate
= '
Ġadhe red
Ġsimultane ously
E PS
aed a
Ġcontraindic ations
Ġcharg ing
ĠD BA
Ġur ged
Ġcomple teness
Ġcon j
lu tide
25 6
Ġper ipl
ĠG ordon
Ġk ain
Ġmicrov essels
mer ce
Ġdocument ary
Sh are
it ol
ON E
ĠG arden
ĠHS PA
h att
ona ute
ĠThom pson
Ġk om
ane ous
ensi ble
ap ore
ac tions
Ġred istributed
Ġt anks
Ġten otomy
Ġless ons
Ġthin ness
tr ack
Ġgonad al
Ġisoc enter
Ġout standing
Ġpre pro
Ġvolunte ers
ĠPregn ancy
SC S
Ġsp ray
ĠP Y
bar rel
Ġmanag ers
ĠPA H
ĠK v
ĠV ene
l arge
ĠSur vival
rel and
ĠSal ivary
Ġcamp s
Ġhospital izations
ĠE PR
ip henyl
Ġphysiotherap ists
Ġart ificial
as g
Ġimmun oprecipit
ĠÐº Ð»
alc ogen
ĠR u
f etal
000 8
ĠBam HI
Ġb ags
Ġconduc tive
Ð¾Ð ¶
ochond ral
T rait
th al
Ġsuccin ate
troph ic
hydroxy ethyl
i ogenic
Ġcompat ible
Ġundergo ing
Ġass er
op opliteal
ĠBl ade
ĠEx tra
Ġsub acromial
Ġf ed
ĠInc luded
Ġ4 68
Ġarg ues
Ġvari ed
Ġmy rist
inten se
F I
ignific ant
s alt
v ative
ĠMoz ambique
Ġunf air
F OX
Zn O
Ġqu ench
Ġcor n
Ġta ught
å¹³ åĿĩ
Ġoff set
Ġbir ths
ure ment
Ġarbo viruses
Ġdirect ions
ĠPT H
Ġinf erences
p si
Ġdisappoint ed
aff in
ĠCor onavirus
ĠI oT
ĠCon vention
ĠSt reptococcus
Ġview ing
bi otic
M E
ĠT rials
M g
oc ity
Ġtown s
Ġs keletal
Ġlay ers
Ġro lled
Ġjump ed
Ġatt ribute
Ġun necess
inc oln
Ġplex us
Ġsupp ose
ĠNet her
ch a
Ġbur ied
tr action
Ġsix th
ĠG reek
B en
ere s
tub e
ress ing
Ġabsorb ance
glut amine
OU R
ĠG ran
anes ulf
Ġw ound
Ġtherm ophilic
Ġcy cl
Ġan oxic
Ġmechan isms
yn amic
Ġcongress ional
ĠE lement
Ġagre ements
Ġdec or
Ġclos est
Ġmultic omponent
ĠM it
Ġrelie ve
Go ogle
ĠL act
avi an
} }
Ġdi valent
Ġm ixture
Ġflu id
S ign
ec tomy
ĠSch olar
Ġp ist
ask et
ab ling
Ġrac ing
he ro
ri el
ass y
Ġche aper
b en
4 05
Ġvert ical
amac are
ĠRead ing
g ments
Ġhelic op
an yl
Ġsacr ifice
ay a
p aren
Ġla id
V A
Ġdisl ocations
ĠL es
u ters
ĠStud io
Ġcon stric
ĠEg ypt
Ġviol ations
ren z
ĠAn na
AV P
capro lactone
ac er
ĠS CS
é ¾
ia x
ĠR at
ĠEx trac
Ġc ette
ĠBe ck
ta u
vi ated
ĠSch ools
ĠD ick
Ġretard ed
ons in
Ġmyel oablative
ĠA CT
Ġbi oge
h sp
ĠPM CA
Ġcomp osition
Ġm assive
Ġneuro protection
Ġneuro epithelial
Ġinhal ant
Ġtext ure
top ril
if l
ĠO wn
03 9
ĠB LS
Ġsmart phone
Ġconc ordant
Ġnucle oid
ĠN A
Ġfire fly
Ġfor b
ĠPhosph atidyl
im port
Ġal teplase
Ġexempl ars
Ġdef ending
Ġalve olitis
il st
od el
re r
fer ing
Ġo h
Ġcy ano
Ġmach ining
ĠJere my
app rec
Ġst omat
Ġbrach y
Ġbank ing
rh amn
96 4
cept ions
Ġsumm aries
5 53
Ġpleu rodesis
Ġrespect ive
DL BCL
enetri amine
/ .
Ġpsych iatrist
Ġdr inks
ĠFib rin
ĠW i
ĠS AC
Ġb ands
Ġenteroc olitica
ĠL iverpool
Ġs omat
Ġg rip
Ġnod ules
ĠB uy
Ġopen ly
Ġreview ed
per t
Ġver ify
Ġtr action
ĠCo le
Ġbe hind
ĠW ales
Ġim bal
M O
Ġdisc over
Ġun pre
Ġc hel
Ġshel ter
Ġeff icac
ĠIm perial
Ġser ves
Ġgu i
ĠIn vent
ĠD ak
Ġsuggest ions
MP T
Ġexplicit ly
CF C
Ġsl ave
ox yn
ç¡ ®
Ġblock chain
in jections
Ġcompet ing
Ġchem ore
Ġprom ising
Ġnutri tive
S ON
ti le
Ġsoc cer
Ġconst itution
in ae
4 29
Ġcoil ed
Ġdist ract
Ġflav or
Ġver ruc
ĠU ser
Ġstimul ant
isc us
es ides
Ġhydroly ze
RI G
ĠMet hod
ept ember
ĠUP LC
PD GFR
ĠTok yo
D CM
III B
Ġaccompan ied
Ġsl abs
Cl ient
LI SA
ĠMV R
s ur
thaw ing
al og
Ġdos ing
ĠR hesus
Ġident ification
Ġinv asion
as ma
Ġindust ries
pp ers
Ġinclusion s
Ġsub tle
ĠUn it
Ġst atin
n atural
Ġsurv ived
Ġfl aw
ĺ ħ
ĠH oll
Ġdef icit
ĠD HP
Ġtut orial
ĠCh ance
ĠT DI
Ġarg uing
ĠAnat omical
Ġcontem porary
ĠQ ALYs
Ġinteg ration
for ward
Ġ200 0
Ġt um
Ġpoly p
opy ran
it is
aryn geal
of en
Ġh iding
Ġpro ved
Ġcareg iver
ĠD omin
ew ise
ĠT an
ĠOut come
ĠB uilding
op ulation
ĠV in
ĠKre bs
Ġspokes person
ĠR OR
ĠNot es
ĠRadi otherapy
Ġemer ging
meth ods
Ġprepar ation
ĠV alley
Ġpro st
Ġarsen ite
Ġsuspect s
Ġaut onom
D escription
Ġdeal t
ĠP ear
Ġstead y
Ġdecre ased
Ġso vere
ĠCl in
Ġgrad ually
Ġref ractory
ors es
Ġinfil tr
ĠW AR
S erv
ãĤ ¢
h r
Ġd irty
ĠB arn
ĠB C
Ġd il
Ġcal endar
Ġcompl iance
Ġch amber
b b
Ġpass enger
ate ful
Ġbenchmark ing
ĠT itle
ĠH FS
ĠSyd ney
oencephal opathy
ĠG ot
Ġdark ness
Ġdef ect
Ġpack ed
ass ion
Ġgod s
Ġh arsh
IC K
le ans
Ġalgorith m
Ġoxy gen
Ġexc ell
Ġvis its
Ġbl ade
Ġasym ptomatic
Ġkil omet
ste ine
aps ig
ĠKent ucky
Ġkill er
P ack
enn y
Ġdiv ine
Ġnom ination
be ing
Ġeng ines
Ġc ats
plas min
Ġbuff er
ĠPA G
ĠPh ill
inf ection
CX CL
Ġtra ff
ĠE vidence
ĠT rac
AG E
Ġtong ue
Ġrad iation
ere r
m em
rop ia
ĠExpl icit
Ġly ophil
è§ £
é¾ į
si le
Ġcou ples
ĠK up
Ġphys ics
gra ph
ĠMc K
O SA
Ġnanom olar
Ġpolit ically
Ġanti apoptotic
aw ks
ĠBl oom
Ġwor ship
e ger
ut er
ĠF O
Ġmat hemat
Ġdemyel inating
Ġsent enced
Ġneuro fib
Ġdis k
ĠM arg
Ġ/ *
P I
Ġoption al
Ġchrom at
Ġbab ies
Ġse eds
ĠScott ish
Ġmax illary
Ġth y
g ic
] ]
pro jection
ĠHit ler
Ġ4 41
P H
ĠÐ´ Ð¾
ng th
7 15
Ġrec overed
B ET
ing e
Ġpow der
ĠR educ
Ġl ips
ulos keletal
Ġpromp t
Ġdesign er
Ġect opic
Ġdis orders
AC S
Ġcub e
Ġcour age
Ġbon ding
Ġconsol idate
Ġch aos
Ġthromb ocyt
Ġcytoker atins
" },{"
Ġsolub ility
Ġunivers ality
Ġcar rier
Ġindivid ually
Ġnitro tyrosine
b ably
xim al
H igh
tiv ities
ĠR T
ĠSp rague
Ġgener ality
es ity
os idase
Ġimprec ise
l en
Ġinfer tility
ple ments
Ġscorp ion
Ġrout es
Ġbrain s
ul itis
u ating
Ġinhal ation
F il
Ġantif ungal
N OT
os ides
w all
s burgh
tic es
Ġeng aging
ĠJava Script
ore r
li hood
Ġun ions
ĠF ederation
ĠTes la
Ġcomple tion
Ġphot obleaching
ĠT a
Ġsch ools
Ġchole lithiasis
Ġprivile ge
otox ic
ĠT rim
ĠOr ange
in form
oj ejunostomy
Ġne ur
Ġpercol ation
paren cy
Ġsub end
Ġb ones
Ġtit led
Ġk illing
Ġprosecut ors
Ġtranscript ome
ĠM E
Ġengine er
Ġschiz ophren
ĠUn iverse
ĠRelations hips
ĠH ig
ĠResid ual
n ie
o ard
Ġheart s
ĠG re
uss ion
irradi ated
Ġmin istry
Ġca esarean
Ġpen et
ĠN ut
ĠO w
pres ence
ĠX P
Ġrap port
in stein
Ġaz ole
0 71
Ġbul k
Ġtran examic
S ystem
Ġknock down
ic ism
ĠP eking
ĠMarket able
ĠD BM
Ġpre val
Ġpost er
Ġatt ending
ur able
Ġlicens ed
Ġaggreg ates
ĠG h
et ry
ĠAn t
ĠTrad able
Ġarter ial
Ġbl ast
à ¤
oc ic
ĠTit an
ell ed
d ie
Ġgraf ts
H ave
Ġpoly s
ĠFl ame
Ġpor tion
Ġprof ound
Ġparticip ating
Ġan ime
ĠE ss
Ġspec ify
our al
Ġregard ed
Ġestrogen ic
ĠSpe ll
Ġs ons
own ed
Ġm erc
ĠFr acture
Ġexper imental
ĠC in
land o
Ġr il
h s
Ġseason ally
ĠDun geon
anat omical
Ġdisinf ectant
in os
ĠF AD
Ġp ial
Ġcomp ly
ĠSystem s
form yl
ar th
en afil
æľ Ī
Ġse ized
Ġsupra ventricular
l ocal
Ġseptice mia
ĠGirl s
Ġover comes
ud o
on ed
G n
ĠF le
Ġster ilization
Ġmel amine
Ġconstruct ed
Ġalg al
Ġsegment ectomy
Ġhost ed
Ġenter ocyte
Ġsc ared
ĠPL HIV
act ic
obut ane
ĠIs lands
ĠM ORE
Ġbl ess
Ġblock ing
Ġch ips
Ġdi vision
Ġev ac
Ġhyper plasia
P s
Ġabs cess
av icular
Ġcorpor ation
Ġpa per
Ġj us
Ĥ £
Ġo x
ere b
Ġca ud
ĠHep at
Ġlight ing
Ġc ri
Ġpap ill
ĠACh E
Ġneighb ors
Ġdrop s
ĠTGF beta
ĠU b
pro sy
Ġcolocal ized
R K
ar o
orph ine
Ġdis ent
ĠHip pocampal
Ġbe ef
amphen icol
prot ocol
ĠMul tif
ĠU ber
ul ph
Ġ zym
ĠHem odynamic
Ġaer o
F acebook
Ġz oon
op oside
CI D
ĠS ynt
ar med
t emporal
ĠT AK
Ġtrans differentiation
it ate
34 5
ĠMD T
ĠV imentin
ĠR ating
ĠB m
ĠHist opathology
Ġantagon izing
lis m
ĠQu ick
Ġgran ule
Ġcrust ace
yl transferase
ĠDel irium
Ġoccup ied
ĠSystem atic
cy ano
al veolar
y ield
Ġaim s
Ġsph incter
Ġherb iv
ĠCG P
Ġcontour ing
ĠAdd itionally
C d
Ġturb id
Ġt Hcy
ĠInt erest
orb id
ĠR p
isc iplinary
Ġdram atically
cri ptom
Ġhe al
ĠRO Is
Ġpain ting
Ġp om
Ġengine ers
ĠAt he
Ġexc ipients
M M
ĠIV C
Ġisop ren
ĠTo M
ĠM ust
re tro
Ġaz ithromycin
Ġapp etitive
Ġquant ity
ec tiveness
ri axone
P aul
Ġcycl ization
Ġearn ings
adi p
ĠPost s
analy tical
st ra
ãĥ¼ ãĥ
Ġst ance
Ġdro pping
sc ript
Ġd ressed
M ake
Ġjust ify
ĠL td
Ġprompt ed
Ġscr ut
Ġspeed s
ĠGi ants
om er
ĠEd itor
i ety
Ġdescrib ing
ĠL ie
ment ed
Ġhybrid izations
Ġnow here
sh an
oc aly
Ġperic ellular
Ġinst ruction
Ġheteros tructure
fort able
7 63
Ġent ities
Ġc m
ĠN atural
Ġinqu iry
Ġpress ed
iz ont
for ced
Ġra ises
ĠCP G
[...]
